{
    "version": "1.0",
    "truncation": null,
    "padding": null,
    "added_tokens": [
        {
            "id": 0,
            "special": true,
            "content": "</s>",
            "single_word": false,
            "lstrip": false,
            "rstrip": false,
            "normalized": false
        },
        {
            "id": 1,
            "special": true,
            "content": "<unk>",
            "single_word": false,
            "lstrip": false,
            "rstrip": false,
            "normalized": false
        },
        {
            "id": 65000,
            "special": true,
            "content": "<pad>",
            "single_word": false,
            "lstrip": false,
            "rstrip": false,
            "normalized": false
        }
    ],
    "normalizer": {
        "type": "Precompiled",
        "precompiled_charsmap": null
    },
    "pre_tokenizer": {
        "type": "Sequence",
        "pretokenizers": [
            {
                "type": "WhitespaceSplit"
            },
            {
                "type": "Metaspace",
                "replacement": "\u2581",
                "add_prefix_space": true
            }
        ]
    },
    "post_processor": {
        "type": "TemplateProcessing",
        "single": [
            {
                "Sequence": {
                    "id": "A",
                    "type_id": 0
                }
            },
            {
                "SpecialToken": {
                    "id": "</s>",
                    "type_id": 0
                }
            }
        ],
        "pair": [
            {
                "Sequence": {
                    "id": "A",
                    "type_id": 0
                }
            },
            {
                "SpecialToken": {
                    "id": "</s>",
                    "type_id": 0
                }
            },
            {
                "Sequence": {
                    "id": "B",
                    "type_id": 0
                }
            },
            {
                "SpecialToken": {
                    "id": "</s>",
                    "type_id": 0
                }
            }
        ],
        "special_tokens": {
            "</s>": {
                "id": "</s>",
                "ids": [
                    0
                ],
                "tokens": [
                    "</s>"
                ]
            }
        }
    },
    "decoder": {
        "type": "Metaspace",
        "replacement": "\u2581",
        "add_prefix_space": true
    },
    "model": {
        "type": "Unigram",
        "unk_id": 2,
        "vocab": [
            [
                "</s>",
                0.0
            ],
            [
                "<unk>",
                0.0
            ],
            [
                ",",
                -3.0546021461486816
            ],
            [
                "\u2581the",
                -2.8425564765930176
            ],
            [
                "\u2581of",
                -3.288961887359619
            ],
            [
                ">>cmn_Hans<<",
                -100
            ],
            [
                ".",
                -3.309706687927246
            ],
            [
                "\u2581and",
                -3.572770833969116
            ],
            [
                "\u2581",
                -3.252854347229004
            ],
            [
                "\u2581to",
                -3.7303051948547363
            ],
            [
                "\u3002",
                -3.5852527618408203
            ],
            [
                "\u2581in",
                -4.091744422912598
            ],
            [
                "\u7684",
                -4.060011386871338
            ],
            [
                "\u2581a",
                -4.562533378601074
            ],
            [
                "\u3001",
                -4.258884906768799
            ],
            [
                "\u2581for",
                -4.697044849395752
            ],
            [
                "-",
                -4.8279242515563965
            ],
            [
                ")",
                -4.9802775382995605
            ],
            [
                "\u548c",
                -4.413674831390381
            ],
            [
                "\u2581on",
                -4.800480842590332
            ],
            [
                "\u2581that",
                -4.794984340667725
            ],
            [
                ">>cmn_Hant<<",
                -100
            ],
            [
                "\u2581(",
                -5.096267223358154
            ],
            [
                "'",
                -4.7961554527282715
            ],
            [
                "s",
                -4.770648002624512
            ],
            [
                "?",
                -5.422771453857422
            ],
            [
                "\u2581The",
                -5.119152069091797
            ],
            [
                ";",
                -5.537405490875244
            ],
            [
                "\u2581I",
                -5.1143927574157715
            ],
            [
                "\u2581with",
                -5.288110733032227
            ],
            [
                "\u2581-",
                -5.6787333488464355
            ],
            [
                "\u2581by",
                -5.327552795410156
            ],
            [
                "\u2581is",
                -5.303353786468506
            ],
            [
                "\u5e74",
                -5.017753601074219
            ],
            [
                "\u2581be",
                -5.411978721618652
            ],
            [
                "\u2581as",
                -5.454312801361084
            ],
            [
                "(",
                -5.102321147918701
            ],
            [
                ":",
                -5.844132423400879
            ],
            [
                "\u5728",
                -5.131642818450928
            ],
            [
                "\u2581you",
                -5.420361518859863
            ],
            [
                "\u2581\"",
                -5.957884788513184
            ],
            [
                "\u2581it",
                -5.668614864349365
            ],
            [
                "/",
                -6.095007419586182
            ],
            [
                "\u2581was",
                -5.763017654418945
            ],
            [
                "\u6708",
                -5.451022624969482
            ],
            [
                "\u2581its",
                -5.80584192276001
            ],
            [
                "\u2581are",
                -5.803267955780029
            ],
            [
                "\u2581United",
                -5.868860721588135
            ],
            [
                "\u2581at",
                -5.883864402770996
            ],
            [
                "\u300b",
                -5.59474515914917
            ],
            [
                "!",
                -6.17417573928833
            ],
            [
                "\u2581from",
                -5.960430145263672
            ],
            [
                "\u2581or",
                -5.982372283935547
            ],
            [
                "\u300a",
                -5.636172771453857
            ],
            [
                "\u2581Nations",
                -6.020406246185303
            ],
            [
                "\u2581have",
                -5.984034538269043
            ],
            [
                "\u2581not",
                -6.0079851150512695
            ],
            [
                "\u4e86",
                -5.719172477722168
            ],
            [
                "\u2581this",
                -6.082279682159424
            ],
            [
                "\u2581an",
                -6.152437210083008
            ],
            [
                "t",
                -6.057852268218994
            ],
            [
                "\u2581all",
                -6.164337158203125
            ],
            [
                "\u2581which",
                -6.200284481048584
            ],
            [
                "\u2581their",
                -6.213317394256592
            ],
            [
                "\u2581Committee",
                -6.252554416656494
            ],
            [
                "\u5bf9",
                -5.842541694641113
            ],
            [
                "\u2581has",
                -6.297036170959473
            ],
            [
                "\u4e0e",
                -5.965389728546143
            ],
            [
                "\u2581In",
                -6.3347883224487305
            ],
            [
                "\u2581States",
                -6.349481582641602
            ],
            [
                "...",
                -6.738077640533447
            ],
            [
                "\u6216",
                -6.0370965003967285
            ],
            [
                "\u662f",
                -5.909852504730225
            ],
            [
                "\u2581international",
                -6.434652328491211
            ],
            [
                "\u2581been",
                -6.424253463745117
            ],
            [
                "\u2581will",
                -6.408603191375732
            ],
            [
                "\u4e3a",
                -6.057587146759033
            ],
            [
                "\u65e5",
                -6.117839336395264
            ],
            [
                "\u2581had",
                -6.475883483886719
            ],
            [
                "\u7b2c",
                -6.066591262817383
            ],
            [
                "\u2581A",
                -6.6361494064331055
            ],
            [
                "\u2581also",
                -6.515426158905029
            ],
            [
                "\u4e2d",
                -6.1718902587890625
            ],
            [
                "A",
                -6.675893783569336
            ],
            [
                "\u2581It",
                -6.46652889251709
            ],
            [
                "\u2581'",
                -6.571986675262451
            ],
            [
                "\u2581were",
                -6.530390739440918
            ],
            [
                "\u2581other",
                -6.534457683563232
            ],
            [
                "a",
                -7.081259727478027
            ],
            [
                "\u4ee5\u53ca",
                -6.226805210113525
            ],
            [
                "\u2581should",
                -6.586062431335449
            ],
            [
                "\u2581Council",
                -6.614991188049316
            ],
            [
                "\u2581development",
                -6.6305437088012695
            ],
            [
                "\u5e76",
                -6.274701118469238
            ],
            [
                "\u2581would",
                -6.636974334716797
            ],
            [
                "\u2581rights",
                -6.672713279724121
            ],
            [
                "\u2581countries",
                -6.674415588378906
            ],
            [
                "\u5c06",
                -6.309746742248535
            ],
            [
                "\u2581s",
                -6.754636764526367
            ],
            [
                "1",
                -6.351186275482178
            ],
            [
                "m",
                -6.550850868225098
            ],
            [
                "\u2581report",
                -6.7219109535217285
            ],
            [
                "\u2581You",
                -6.561234951019287
            ],
            [
                "\u5305\u62ec",
                -6.415197372436523
            ],
            [
                "d",
                -6.984490394592285
            ],
            [
                "\u2581\u6211",
                -6.46479606628418
            ],
            [
                "\u2581\u5728",
                -6.572588920593262
            ],
            [
                "\u2581we",
                -6.731040954589844
            ],
            [
                "\u2581me",
                -6.648405075073242
            ],
            [
                "\u2581resolution",
                -6.821229934692383
            ],
            [
                "b",
                -7.240112781524658
            ],
            [
                "\u2581including",
                -6.835564613342285
            ],
            [
                "\u4ee5",
                -6.492002010345459
            ],
            [
                "\u95ee\u9898",
                -6.498465061187744
            ],
            [
                "\u2581under",
                -6.853280544281006
            ],
            [
                "\u2581women",
                -6.858860969543457
            ],
            [
                "\u2581such",
                -6.865843296051025
            ],
            [
                "3",
                -6.5666422843933105
            ],
            [
                "\u2581human",
                -6.88392448425293
            ],
            [
                "\u2581work",
                -6.855557441711426
            ],
            [
                "\u2581General",
                -6.901038646697998
            ],
            [
                "\u2581Assembly",
                -6.902409553527832
            ],
            [
                "\u6709",
                -6.507782459259033
            ],
            [
                "\u2581can",
                -6.82228422164917
            ],
            [
                "\u6211",
                -6.498563766479492
            ],
            [
                "\u2581support",
                -6.938792705535889
            ],
            [
                "\u2581information",
                -6.967257499694824
            ],
            [
                "\u2581\u4f60",
                -6.649946689605713
            ],
            [
                "\u2581national",
                -6.963531017303467
            ],
            [
                "ing",
                -6.936328411102295
            ],
            [
                "\u4eba",
                -6.581216812133789
            ],
            [
                "2",
                -6.637013912200928
            ],
            [
                "\u2581out",
                -6.911380290985107
            ],
            [
                "\u2581State",
                -6.975821495056152
            ],
            [
                "re",
                -6.8320417404174805
            ],
            [
                "6",
                -6.655323505401611
            ],
            [
                "\u2581session",
                -6.994056224822998
            ],
            [
                "\u2581they",
                -6.9553937911987305
            ],
            [
                "General",
                -7.005418300628662
            ],
            [
                "4",
                -6.719276428222656
            ],
            [
                "\u5173\u4e8e",
                -6.637048721313477
            ],
            [
                "\u2581one",
                -6.9746479988098145
            ],
            [
                "\u2581We",
                -6.965103626251221
            ],
            [
                "\u4f60",
                -6.6323065757751465
            ],
            [
                "\u2581implementation",
                -7.065459251403809
            ],
            [
                "\u2581Secretary",
                -7.064128398895264
            ],
            [
                "\u2581do",
                -6.926731109619141
            ],
            [
                "\u2581Convention",
                -7.057257652282715
            ],
            [
                "\u65f6",
                -6.735599517822266
            ],
            [
                "c",
                -7.593428611755371
            ],
            [
                "\u5411",
                -6.746640205383301
            ],
            [
                "\u5c31",
                -6.686617374420166
            ],
            [
                "5",
                -6.739968776702881
            ],
            [
                "\u5176",
                -6.697479248046875
            ],
            [
                "\u2581right",
                -6.997978687286377
            ],
            [
                "\u2581more",
                -7.071656227111816
            ],
            [
                "\u4e0d",
                -6.7131524085998535
            ],
            [
                "\u2581made",
                -7.0928473472595215
            ],
            [
                "\u4e0a",
                -6.783890247344971
            ],
            [
                "\u56fd\u5bb6",
                -6.761435508728027
            ],
            [
                "\u63d0\u4f9b",
                -6.763129234313965
            ],
            [
                "12",
                -6.799518585205078
            ],
            [
                "\u2581my",
                -6.973724842071533
            ],
            [
                "\u2581there",
                -7.140983581542969
            ],
            [
                "\u2581Commission",
                -7.1393280029296875
            ],
            [
                "7",
                -6.77813196182251
            ],
            [
                "\u800c",
                -6.77517557144165
            ],
            [
                "\u2581into",
                -7.122962951660156
            ],
            [
                "\u2581those",
                -7.126675128936768
            ],
            [
                "\u2581Government",
                -7.141147613525391
            ],
            [
                "\u2581International",
                -7.142922401428223
            ],
            [
                "\u2581your",
                -6.986112594604492
            ],
            [
                "\u2581he",
                -7.067532539367676
            ],
            [
                "\u2581activities",
                -7.172658920288086
            ],
            [
                "\u2581against",
                -7.165107727050781
            ],
            [
                "\u2581his",
                -7.133184432983398
            ],
            [
                "\u8fdb\u884c",
                -6.834362983703613
            ],
            [
                "C",
                -7.493716716766357
            ],
            [
                "\u2581well",
                -7.176766872406006
            ],
            [
                "e",
                -7.5417609214782715
            ],
            [
                "\u516c\u7ea6",
                -6.897122383117676
            ],
            [
                "\u2581through",
                -7.214258670806885
            ],
            [
                "\u2581no",
                -7.1382551193237305
            ],
            [
                "\u4ed6",
                -6.819596290588379
            ],
            [
                "\u2581about",
                -7.141257286071777
            ],
            [
                "10",
                -6.913642406463623
            ],
            [
                "\u2581up",
                -7.135661602020264
            ],
            [
                "\u2581but",
                -7.175595283508301
            ],
            [
                "),",
                -7.442014694213867
            ],
            [
                "\u2581any",
                -7.225619792938232
            ],
            [
                "\u53ca",
                -6.953369140625
            ],
            [
                "\u2581law",
                -7.245232105255127
            ],
            [
                "\u2581between",
                -7.256069183349609
            ],
            [
                "\u59d4\u5458\u4f1a",
                -6.863245964050293
            ],
            [
                "\u2581so",
                -7.193455219268799
            ],
            [
                ")\u3002",
                -7.1403279304504395
            ],
            [
                "\u2581\u201c",
                -7.468814849853516
            ],
            [
                "\u2581meeting",
                -7.269618511199951
            ],
            [
                "\u5de5\u4f5c",
                -6.917208671569824
            ],
            [
                "\u65b9\u9762",
                -6.94212532043457
            ],
            [
                "\u2581them",
                -7.3517842292785645
            ],
            [
                "\u2581who",
                -7.251379013061523
            ],
            [
                "\u2581What",
                -7.037004470825195
            ],
            [
                "\u2581per",
                -7.311282157897949
            ],
            [
                "\u2581know",
                -7.1168718338012695
            ],
            [
                "\u901a\u8fc7",
                -6.927258014678955
            ],
            [
                "\u2581need",
                -7.272246837615967
            ],
            [
                "\u2581measures",
                -7.328585624694824
            ],
            [
                "\u2581This",
                -7.280803680419922
            ],
            [
                "\u2581system",
                -7.329714775085449
            ],
            [
                "\u2581what",
                -7.18544864654541
            ],
            [
                "\u2581country",
                -7.340782165527344
            ],
            [
                "\u2581Security",
                -7.3414716720581055
            ],
            [
                "\u2581security",
                -7.344954490661621
            ],
            [
                "\u2581new",
                -7.3264665603637695
            ],
            [
                "9",
                -6.961027145385742
            ],
            [
                "\u2581organizations",
                -7.368070125579834
            ],
            [
                "\u201d",
                -7.455568313598633
            ],
            [
                "\u6709\u5173",
                -6.969614028930664
            ],
            [
                "\u2581No",
                -7.238999843597412
            ],
            [
                "\u2581time",
                -7.322421550750732
            ],
            [
                "\u2581Mr",
                -7.321773052215576
            ],
            [
                "\u2581Conference",
                -7.358325481414795
            ],
            [
                "\u25811",
                -7.407081604003906
            ],
            [
                "\u00b7",
                -7.033441543579102
            ],
            [
                "\u2581Republic",
                -7.295650482177734
            ],
            [
                "\u8054\u5408\u56fd",
                -6.983375549316406
            ],
            [
                "\u2581cooperation",
                -7.386183738708496
            ],
            [
                "S",
                -7.742687702178955
            ],
            [
                "\u2581efforts",
                -7.411396026611328
            ],
            [
                "\u2581these",
                -7.383737087249756
            ],
            [
                "\u2581draft",
                -7.4101738929748535
            ],
            [
                "\u2581could",
                -7.374797821044922
            ],
            [
                "L",
                -7.742985248565674
            ],
            [
                "\u6211\u4eec",
                -7.019739627838135
            ],
            [
                "\u4ece",
                -7.052640438079834
            ],
            [
                "\u2581people",
                -7.366790294647217
            ],
            [
                "\u6761",
                -7.090512752532959
            ],
            [
                "\u2581children",
                -7.41454553604126
            ],
            [
                "\u2581take",
                -7.376964569091797
            ],
            [
                "\u2581like",
                -7.327819347381592
            ],
            [
                "\u2581some",
                -7.402301788330078
            ],
            [
                "\u2581Development",
                -7.4368486404418945
            ],
            [
                ").",
                -7.686601638793945
            ],
            [
                "\u2581if",
                -7.366602420806885
            ],
            [
                "8",
                -7.084637641906738
            ],
            [
                "\u65b9\u6848",
                -7.092810153961182
            ],
            [
                "\u2581resources",
                -7.453616142272949
            ],
            [
                "\u5730",
                -7.153125286102295
            ],
            [
                "\u2581programme",
                -7.442569732666016
            ],
            [
                "\u2581He",
                -7.344015121459961
            ],
            [
                "\u4e5f",
                -7.123137474060059
            ],
            [
                "\u2581may",
                -7.4496846199035645
            ],
            [
                "\u2581Rights",
                -7.464225769042969
            ],
            [
                "11",
                -7.168558120727539
            ],
            [
                "\u4e2a",
                -7.122617721557617
            ],
            [
                "\u9700\u8981",
                -7.11913537979126
            ],
            [
                "\u2581non",
                -7.484840393066406
            ],
            [
                "ed",
                -7.499772071838379
            ],
            [
                "\u2581regional",
                -7.495231628417969
            ],
            [
                "\u4e8e",
                -7.143765449523926
            ],
            [
                "\u53f7\u51b3\u8bae",
                -7.145754337310791
            ],
            [
                "\u6bb5",
                -7.164912223815918
            ],
            [
                "\u2581two",
                -7.474795341491699
            ],
            [
                "\u62a5\u544a",
                -7.05444860458374
            ],
            [
                "\u6240",
                -7.177192211151123
            ],
            [
                "\u2581--",
                -7.585204601287842
            ],
            [
                "\u88ab",
                -7.183593273162842
            ],
            [
                "\u7531",
                -7.169710636138916
            ],
            [
                "\u2581number",
                -7.506061553955078
            ],
            [
                "\u2581cent",
                -7.516815662384033
            ],
            [
                "\u5148\u751f",
                -7.21414041519165
            ],
            [
                "\u56fd\u9645",
                -7.181924819946289
            ],
            [
                "\u6765",
                -7.164829254150391
            ],
            [
                "\u5230",
                -7.142338752746582
            ],
            [
                "\u2581only",
                -7.491906642913818
            ],
            [
                "\u2581Group",
                -7.517612457275391
            ],
            [
                "\u2581assistance",
                -7.5251994132995605
            ],
            [
                "\u2581order",
                -7.521115779876709
            ],
            [
                "\u2581ensure",
                -7.530799865722656
            ],
            [
                "\u2581issues",
                -7.545428276062012
            ],
            [
                "\u2581provide",
                -7.531972885131836
            ],
            [
                "\u653f\u5e9c",
                -7.1141862869262695
            ],
            [
                "\u5e94",
                -7.123905658721924
            ],
            [
                "\u2581use",
                -7.52760124206543
            ],
            [
                "\u6267\u884c",
                -7.164096832275391
            ],
            [
                "\u2581paragraph",
                -7.547026634216309
            ],
            [
                "\u2581over",
                -7.520044326782227
            ],
            [
                "\u2581financial",
                -7.561704158782959
            ],
            [
                "\u2581our",
                -7.505326271057129
            ],
            [
                "\u2581process",
                -7.561525344848633
            ],
            [
                "\u90fd",
                -7.210671424865723
            ],
            [
                "\u8fd9\u4e9b",
                -7.152487754821777
            ],
            [
                "\u2581economic",
                -7.574337005615234
            ],
            [
                "ll",
                -7.442639350891113
            ],
            [
                "\u6d3b\u52a8",
                -7.190124988555908
            ],
            [
                "\u2581Human",
                -7.580124855041504
            ],
            [
                "\u2581her",
                -7.472343921661377
            ],
            [
                "\u2581don",
                -7.3891096115112305
            ],
            [
                "\u2581than",
                -7.55702543258667
            ],
            [
                "\u2581further",
                -7.589868068695068
            ],
            [
                "\u2581members",
                -7.591908931732178
            ],
            [
                "\u2581social",
                -7.5977020263671875
            ],
            [
                "\u6839\u636e",
                -7.222470760345459
            ],
            [
                "\u2581article",
                -7.59495210647583
            ],
            [
                "\u2581just",
                -7.46573543548584
            ],
            [
                "\u8bf4",
                -7.24870491027832
            ],
            [
                "\u2581services",
                -7.606828689575195
            ],
            [
                "\u2581Office",
                -7.610496520996094
            ],
            [
                "\u2581And",
                -7.448978424072266
            ],
            [
                "\u2581must",
                -7.590159893035889
            ],
            [
                "\u4e00\u4e2a",
                -7.169162273406982
            ],
            [
                "\u2581Special",
                -7.614554405212402
            ],
            [
                "\u6ca1\u6709",
                -7.228712558746338
            ],
            [
                "\u2581particular",
                -7.6365580558776855
            ],
            [
                "\u2581here",
                -7.499038219451904
            ],
            [
                "\u652f\u6301",
                -7.264995574951172
            ],
            [
                "\u8981\u6c42",
                -7.285484790802002
            ],
            [
                "\u2581party",
                -7.639216423034668
            ],
            [
                "\u2581\u4ed6",
                -7.361417293548584
            ],
            [
                "\u2581developing",
                -7.654599666595459
            ],
            [
                "\u53ef",
                -7.267380714416504
            ],
            [
                "\u2581provided",
                -7.65606689453125
            ],
            [
                "\u2581relevant",
                -7.653189182281494
            ],
            [
                "\u2581shall",
                -7.626223564147949
            ],
            [
                "\u25812.",
                -7.805919647216797
            ],
            [
                "\u201c",
                -7.276121616363525
            ],
            [
                "\u2581within",
                -7.665266036987305
            ],
            [
                "\u2581C",
                -7.971719264984131
            ],
            [
                "\u2581him",
                -7.523916721343994
            ],
            [
                "\u2581years",
                -7.647357940673828
            ],
            [
                "\u2581programmes",
                -7.683237075805664
            ],
            [
                "\u2581That",
                -7.530503273010254
            ],
            [
                "\u2581decision",
                -7.666285991668701
            ],
            [
                "\u25811.",
                -7.8447794914245605
            ],
            [
                "\u4f46",
                -7.298195838928223
            ],
            [
                "\u4e00",
                -7.325800895690918
            ],
            [
                "\u2581\u6211\u4eec",
                -7.387157917022705
            ],
            [
                "E",
                -7.9681172370910645
            ],
            [
                "\u4ed6\u4eec",
                -7.300515174865723
            ],
            [
                "\u4f1a\u8bae",
                -7.294541358947754
            ],
            [
                "\u2581first",
                -7.670019149780273
            ],
            [
                "\u2581management",
                -7.702763080596924
            ],
            [
                "\u5417",
                -7.37075662612915
            ],
            [
                "\u2581public",
                -7.7128496170043945
            ],
            [
                "\u2581[",
                -8.073182106018066
            ],
            [
                "\u2581when",
                -7.663331985473633
            ],
            [
                "\u5df2",
                -7.326567649841309
            ],
            [
                "\u2581December",
                -7.6784820556640625
            ],
            [
                "\u2581areas",
                -7.7373833656311035
            ],
            [
                "\u2581adopted",
                -7.736598491668701
            ],
            [
                "\u2581make",
                -7.676440238952637
            ],
            [
                "\u8981",
                -7.340816974639893
            ],
            [
                "\u2581period",
                -7.72855281829834
            ],
            [
                "\u6240\u6709",
                -7.313809871673584
            ],
            [
                "\u2581staff",
                -7.737173557281494
            ],
            [
                "\u2581health",
                -7.744842052459717
            ],
            [
                "\u6cd5",
                -7.451112270355225
            ],
            [
                "\u2581now",
                -7.6663312911987305
            ],
            [
                ");",
                -8.075932502746582
            ],
            [
                "\u2581held",
                -7.751281261444092
            ],
            [
                ">>cmn<<",
                -100
            ],
            [
                "\u2581where",
                -7.706803798675537
            ],
            [
                "\u2581during",
                -7.758245468139648
            ],
            [
                "\u2581level",
                -7.754300594329834
            ],
            [
                "\u8fd8",
                -7.33746862411499
            ],
            [
                "\u2581being",
                -7.763112545013428
            ],
            [
                "\u6027",
                -7.462339401245117
            ],
            [
                "\u2581persons",
                -7.776706218719482
            ],
            [
                "\u8005",
                -7.439715385437012
            ],
            [
                "\u2581B",
                -8.340415954589844
            ],
            [
                "\u4ee3\u8868",
                -7.409020900726318
            ],
            [
                "\u540e",
                -7.443792343139648
            ],
            [
                "\u4e0b",
                -7.455017566680908
            ],
            [
                "\u2581go",
                -7.598769187927246
            ],
            [
                "\u7ee7\u7eed",
                -7.441195011138916
            ],
            [
                "\u2581review",
                -7.792659759521484
            ],
            [
                "\u2581regard",
                -7.792860984802246
            ],
            [
                "i",
                -8.195590019226074
            ],
            [
                "\u8be5",
                -7.37954568862915
            ],
            [
                "\u2581protection",
                -7.807343482971191
            ],
            [
                "\u2581education",
                -7.79640007019043
            ],
            [
                "\u9879\u76ee",
                -7.399170398712158
            ],
            [
                "30",
                -7.541251182556152
            ],
            [
                "\u4f1a",
                -7.41119384765625
            ],
            [
                "\u2581President",
                -7.793945789337158
            ],
            [
                "\u5987\u5973",
                -7.480900764465332
            ],
            [
                "\u2581action",
                -7.808287143707275
            ],
            [
                "\u2581parties",
                -7.811650276184082
            ],
            [
                "\u2581At",
                -7.803971767425537
            ],
            [
                "\u7ec4\u7ec7",
                -7.477598190307617
            ],
            [
                "\u5b83",
                -7.41964864730835
            ],
            [
                "\u53ef\u4ee5",
                -7.4232306480407715
            ],
            [
                "]",
                -8.237885475158691
            ],
            [
                "\u2581political",
                -7.81982946395874
            ],
            [
                "\u2581legal",
                -7.818853378295898
            ],
            [
                "\u2581Programme",
                -7.81066370010376
            ],
            [
                "\u7b49",
                -7.470034122467041
            ],
            [
                "\u4f5c\u4e3a",
                -7.4754509925842285
            ],
            [
                "\u53d1\u5c55",
                -7.422482490539551
            ],
            [
                "\u2581situation",
                -7.81929874420166
            ],
            [
                "\u4f7f",
                -7.473585605621338
            ],
            [
                "\u2581get",
                -7.669055938720703
            ],
            [
                "\u5efa\u8bae",
                -7.3855061531066895
            ],
            [
                "\u5df2\u7ecf",
                -7.491326808929443
            ],
            [
                "\u2581continue",
                -7.8325018882751465
            ],
            [
                "\u2581As",
                -7.852847099304199
            ],
            [
                "\u2581peace",
                -7.837687015533447
            ],
            [
                "\u2581taken",
                -7.838561058044434
            ],
            [
                "\u2581community",
                -7.851044654846191
            ],
            [
                "\u2581Organization",
                -7.823253631591797
            ],
            [
                "ve",
                -7.756876468658447
            ],
            [
                "\u2581capacity",
                -7.852794170379639
            ],
            [
                "\u2581accordance",
                -7.851259708404541
            ],
            [
                "\u25813.",
                -8.026432037353516
            ],
            [
                "\u2581said",
                -7.785324573516846
            ],
            [
                "\u7684\u62a5\u544a",
                -7.577367782592773
            ],
            [
                "\u2581following",
                -7.855069160461426
            ],
            [
                "\u2581training",
                -7.860291481018066
            ],
            [
                "\u2581policy",
                -7.870851516723633
            ],
            [
                "\u5408\u4f5c",
                -7.492556095123291
            ],
            [
                "\u2581agenda",
                -7.856729984283447
            ],
            [
                "\u25812",
                -7.900899887084961
            ],
            [
                "\u2581respect",
                -7.864166736602783
            ],
            [
                "\u4f7f\u7528",
                -7.517342567443848
            ],
            [
                "\u2581among",
                -7.871382236480713
            ],
            [
                "\u2581recommendations",
                -7.888083457946777
            ],
            [
                "\u2581part",
                -7.867764949798584
            ],
            [
                "\u2581special",
                -7.890369415283203
            ],
            [
                "\u2581did",
                -7.786327362060547
            ],
            [
                "\u2581Member",
                -7.89248514175415
            ],
            [
                "\u2581world",
                -7.874537944793701
            ],
            [
                "\u5979",
                -7.495398998260498
            ],
            [
                "\u5fc5\u987b",
                -7.497956275939941
            ],
            [
                "\u2581effective",
                -7.900644779205322
            ],
            [
                "\u2581important",
                -7.901215553283691
            ],
            [
                "\u4fc3\u8fdb",
                -7.503046035766602
            ],
            [
                "\u7f8e\u5143",
                -7.551050186157227
            ],
            [
                "\u2581before",
                -7.873185634613037
            ],
            [
                "\u2581\u7b2c",
                -7.766653537750244
            ],
            [
                "\u2581access",
                -7.911909103393555
            ],
            [
                "\u60c5\u51b5",
                -7.5204057693481445
            ],
            [
                "\u8fd9\u4e00",
                -7.530887603759766
            ],
            [
                "\u8ba4\u4e3a",
                -7.575526714324951
            ],
            [
                "15",
                -7.690454006195068
            ],
            [
                "\u673a\u6784",
                -7.545346260070801
            ],
            [
                "\u2581both",
                -7.914172649383545
            ],
            [
                "\u2581most",
                -7.917908668518066
            ],
            [
                "\u2581reports",
                -7.956358432769775
            ],
            [
                "20",
                -7.670351028442383
            ],
            [
                "\u884c\u52a8",
                -7.5659565925598145
            ],
            [
                "\u2581They",
                -7.850536823272705
            ],
            [
                "\u2581established",
                -7.940975189208984
            ],
            [
                "\u2581S",
                -8.153746604919434
            ],
            [
                "\u53ef\u80fd",
                -7.573731422424316
            ],
            [
                "\u2581P",
                -8.099014282226562
            ],
            [
                "\u2581Africa",
                -7.918275833129883
            ],
            [
                "\u2581To",
                -7.934228897094727
            ],
            [
                "\u2581role",
                -7.94383430480957
            ],
            [
                "\u89c4\u5b9a",
                -7.5882344245910645
            ],
            [
                "\u7ecf\u6d4e",
                -7.5878071784973145
            ],
            [
                "\u540d",
                -7.613759517669678
            ],
            [
                "\u5904\u7406",
                -7.632742404937744
            ],
            [
                "\u65e5\u7b2c",
                -7.621318340301514
            ],
            [
                "\u2581progress",
                -7.966953754425049
            ],
            [
                "\u2581related",
                -7.969661235809326
            ],
            [
                "\u2581Parties",
                -7.968563079833984
            ],
            [
                "\u53c2\u4e0e",
                -7.6168317794799805
            ],
            [
                "\u2581year",
                -7.95977783203125
            ],
            [
                "\u2581working",
                -7.973116874694824
            ],
            [
                "\u258110",
                -7.918430328369141
            ],
            [
                "\u2581same",
                -7.965338706970215
            ],
            [
                "\u2581many",
                -7.964237689971924
            ],
            [
                "\u4fdd\u62a4",
                -7.631294250488281
            ],
            [
                "\u786e\u4fdd",
                -7.596857070922852
            ],
            [
                "\u2581gender",
                -7.987875461578369
            ],
            [
                "\u2581good",
                -7.865506172180176
            ],
            [
                "\u2581There",
                -7.934430122375488
            ],
            [
                "\u63aa\u65bd",
                -7.642382621765137
            ],
            [
                "\u540c",
                -7.62899923324585
            ],
            [
                "\"",
                -7.8659515380859375
            ],
            [
                "\u2581June",
                -7.952716827392578
            ],
            [
                "\u2581violence",
                -7.996479511260986
            ],
            [
                "\u2581way",
                -7.914294719696045
            ],
            [
                "\u2581view",
                -8.005058288574219
            ],
            [
                "\u2581World",
                -8.006514549255371
            ],
            [
                "\u653f\u7b56",
                -7.631975173950195
            ],
            [
                "\u6cd5\u5f8b",
                -7.631118297576904
            ],
            [
                "\u2581present",
                -8.001662254333496
            ],
            [
                "\u2581see",
                -7.874558448791504
            ],
            [
                "er",
                -8.191500663757324
            ],
            [
                "\u2581global",
                -8.016416549682617
            ],
            [
                "\u25814.",
                -8.16946029663086
            ],
            [
                "\u2581want",
                -7.83406925201416
            ],
            [
                "th",
                -8.043584823608398
            ],
            [
                "\u670d\u52a1",
                -7.660088062286377
            ],
            [
                "\u25813",
                -7.890079498291016
            ],
            [
                "\u5185",
                -7.678225517272949
            ],
            [
                "\u5427",
                -7.686491012573242
            ],
            [
                "\u2581she",
                -7.8839192390441895
            ],
            [
                "\u7ba1\u7406",
                -7.647543430328369
            ],
            [
                "\u53f7",
                -7.659148693084717
            ],
            [
                "\u2581Economic",
                -8.033904075622559
            ],
            [
                "\u5ba1\u67e5",
                -7.650110721588135
            ],
            [
                "\u5efa\u7acb",
                -7.674530506134033
            ],
            [
                "\u2581appropriate",
                -8.031084060668945
            ],
            [
                "\u2581technical",
                -8.028040885925293
            ],
            [
                "\u7279\u522b\u662f",
                -7.691377639770508
            ],
            [
                "\u2581But",
                -7.890864372253418
            ],
            [
                "\u2581E",
                -8.312239646911621
            ],
            [
                "\u2581nuclear",
                -8.041019439697266
            ],
            [
                "\u51b3\u5b9a",
                -7.621040344238281
            ],
            [
                "\u2581three",
                -8.019444465637207
            ],
            [
                "\u5927\u4f1a",
                -7.670216083526611
            ],
            [
                "\u628a",
                -7.659486770629883
            ],
            [
                "\u2581us",
                -7.927929401397705
            ],
            [
                "\u5b9e\u65bd",
                -7.665727138519287
            ],
            [
                "\u8fd9",
                -7.6275553703308105
            ],
            [
                "\u8fd9\u79cd",
                -7.674017429351807
            ],
            [
                "\u2581Social",
                -8.045106887817383
            ],
            [
                "\u2581budget",
                -8.030477523803711
            ],
            [
                "\u83b7\u5f97",
                -7.702843189239502
            ],
            [
                "\u2581item",
                -8.026511192321777
            ],
            [
                "\u2581full",
                -8.042952537536621
            ],
            [
                "\u5373",
                -7.736490726470947
            ],
            [
                "\u2581Board",
                -8.046441078186035
            ],
            [
                "\u2581set",
                -8.038629531860352
            ],
            [
                "\u2581necessary",
                -8.061020851135254
            ],
            [
                "18",
                -7.820341110229492
            ],
            [
                "\u2581how",
                -7.986407279968262
            ],
            [
                "\u2581basis",
                -8.070582389831543
            ],
            [
                "\u2581African",
                -8.055611610412598
            ],
            [
                "ly",
                -8.071001052856445
            ],
            [
                "\u52a0\u5f3a",
                -7.656739711761475
            ],
            [
                "\u7684\u4eba",
                -7.829087734222412
            ],
            [
                "\u2581\u56e0\u6b64",
                -7.776914596557617
            ],
            [
                "\u2581institutions",
                -8.085775375366211
            ],
            [
                "\u2581without",
                -8.059062957763672
            ],
            [
                "\u2581\u300a",
                -8.127720832824707
            ],
            [
                "\u2581case",
                -8.063374519348145
            ],
            [
                "\u4efb\u4f55",
                -7.700425148010254
            ],
            [
                "\u52aa\u529b",
                -7.721145153045654
            ],
            [
                "\u793e\u4f1a",
                -7.708866119384766
            ],
            [
                "\u80fd",
                -7.692701816558838
            ],
            [
                "\u2581possible",
                -8.083382606506348
            ],
            [
                "\u2581place",
                -8.045953750610352
            ],
            [
                "):",
                -8.413130760192871
            ],
            [
                "\u589e\u52a0",
                -7.745307922363281
            ],
            [
                "\u65e5\u81f3",
                -7.752856731414795
            ],
            [
                "\u6b3e",
                -7.761562824249268
            ],
            [
                "\u2581million",
                -8.070944786071777
            ],
            [
                "y",
                -8.376140594482422
            ],
            [
                "\u91c7\u53d6",
                -7.7573957443237305
            ],
            [
                "\u81f3",
                -7.770819187164307
            ],
            [
                "\u2581\u5173\u4e8e",
                -7.893065929412842
            ],
            [
                "\u2581National",
                -8.096885681152344
            ],
            [
                "\u8ba1\u5212",
                -7.733116626739502
            ],
            [
                "\u63d0\u51fa",
                -7.700225830078125
            ],
            [
                "\u2581groups",
                -8.114856719970703
            ],
            [
                "P",
                -8.103919982910156
            ],
            [
                "\u2581after",
                -8.060259819030762
            ],
            [
                "\u5927",
                -7.748154163360596
            ],
            [
                "\u2581think",
                -7.963776111602783
            ],
            [
                "\u2581provisions",
                -8.123089790344238
            ],
            [
                "\u2581got",
                -7.9547038078308105
            ],
            [
                "\u2581meetings",
                -8.130901336669922
            ],
            [
                "\u53ca\u5176",
                -7.821505546569824
            ],
            [
                "\u2581cases",
                -8.131396293640137
            ],
            [
                "\u513f\u7ae5",
                -7.747202396392822
            ],
            [
                "\u2581since",
                -8.10930061340332
            ],
            [
                "\u2581All",
                -7.996350288391113
            ],
            [
                "\u91cc",
                -7.824100971221924
            ],
            [
                "\u2581policies",
                -8.12780475616455
            ],
            [
                "\u2581July",
                -8.085247993469238
            ],
            [
                "\u2581consideration",
                -8.137040138244629
            ],
            [
                "\u2581general",
                -8.139877319335938
            ],
            [
                "\u2581Working",
                -8.148296356201172
            ],
            [
                "g",
                -8.628874778747559
            ],
            [
                "\u2581needs",
                -8.160886764526367
            ],
            [
                "\u2581\u6b64\u5916",
                -7.823938369750977
            ],
            [
                "\u25815.",
                -8.294116020202637
            ],
            [
                "\u7684\u5de5\u4f5c",
                -7.873227596282959
            ],
            [
                "\u2581For",
                -8.118342399597168
            ],
            [
                "\u533a\u57df",
                -7.775712966918945
            ],
            [
                "\u2581On",
                -8.145171165466309
            ],
            [
                "\u2581very",
                -8.097960472106934
            ],
            [
                "\u2581upon",
                -8.154736518859863
            ],
            [
                "\u80fd\u591f",
                -7.834865570068359
            ],
            [
                "\u2581include",
                -8.163045883178711
            ],
            [
                "\u5f00\u5c55",
                -7.8234429359436035
            ],
            [
                "\u2581end",
                -8.145509719848633
            ],
            [
                "Add",
                -8.379436492919922
            ],
            [
                "\u6218\u7565",
                -7.825808525085449
            ],
            [
                "\u5b9e\u73b0",
                -7.826534271240234
            ],
            [
                "f",
                -8.638887405395508
            ],
            [
                "\u2581data",
                -8.185348510742188
            ],
            [
                "\u89e3\u51b3",
                -7.843160152435303
            ],
            [
                "\u2581concerned",
                -8.194147109985352
            ],
            [
                "\u2581while",
                -8.177858352661133
            ],
            [
                "\u2581trade",
                -8.195005416870117
            ],
            [
                "\u53bb",
                -7.8003458976745605
            ],
            [
                "\u2581Court",
                -8.182249069213867
            ],
            [
                "\u2581local",
                -8.19392204284668
            ],
            [
                "\u2581issue",
                -8.188236236572266
            ],
            [
                "\u2581account",
                -8.185951232910156
            ],
            [
                "\u2581each",
                -8.187962532043457
            ],
            [
                "17",
                -7.984216690063477
            ],
            [
                "\u4ee5\u4fbf",
                -7.848309516906738
            ],
            [
                "\u4e00\u4e9b",
                -7.819634914398193
            ],
            [
                "\u2581framework",
                -8.193216323852539
            ],
            [
                "\u2581high",
                -8.18974494934082
            ],
            [
                "\u2581available",
                -8.202335357666016
            ],
            [
                "\u65b0\u7684",
                -7.991853713989258
            ],
            [
                "\u2581\u5979",
                -7.937477111816406
            ],
            [
                "\u2581So",
                -8.088733673095703
            ],
            [
                "\u5404",
                -7.8215179443359375
            ],
            [
                "\u2581used",
                -8.191642761230469
            ],
            [
                "\u2581back",
                -8.06953239440918
            ],
            [
                "\u25815",
                -8.093786239624023
            ],
            [
                "\u2581D",
                -8.621079444885254
            ],
            [
                "B",
                -8.253700256347656
            ],
            [
                "Z",
                -10.30086612701416
            ],
            [
                "\u2581She",
                -8.083208084106445
            ],
            [
                "\u6559\u80b2",
                -7.834151268005371
            ],
            [
                "\u2581New",
                -8.15474796295166
            ],
            [
                "\u2581region",
                -8.21100902557373
            ],
            [
                "\u2581Oh",
                -7.961172580718994
            ],
            [
                "\u7279\u522b",
                -7.859046459197998
            ],
            [
                "\u2581increase",
                -8.206223487854004
            ],
            [
                "\u2581Yeah",
                -7.94912576675415
            ],
            [
                "\u786e\u5b9a",
                -7.875113487243652
            ],
            [
                "\u8ba8\u8bba",
                -7.850907802581787
            ],
            [
                "Q",
                -10.527140617370605
            ],
            [
                "\u66f4",
                -7.887399673461914
            ],
            [
                "\u2581noted",
                -8.231895446777344
            ],
            [
                "\u2581Fund",
                -8.20661449432373
            ],
            [
                "\u25814",
                -8.101064682006836
            ],
            [
                "\u524d",
                -7.847084045410156
            ],
            [
                "\u2581proposed",
                -8.23166561126709
            ],
            [
                "\u2581group",
                -8.20947551727295
            ],
            [
                "\u2581European",
                -8.227030754089355
            ],
            [
                "\u7528",
                -7.838372230529785
            ],
            [
                "\u2581May",
                -8.162528038024902
            ],
            [
                "\u56e0\u4e3a",
                -7.852052211761475
            ],
            [
                "\u2581importance",
                -8.235219955444336
            ],
            [
                "\u2581area",
                -8.237700462341309
            ],
            [
                "\u671f\u95f4",
                -7.890251159667969
            ],
            [
                "\u6280\u672f",
                -7.869254112243652
            ],
            [
                "\u2581humanitarian",
                -8.235414505004883
            ],
            [
                "\u2581Secretariat",
                -8.233254432678223
            ],
            [
                "14",
                -7.969666957855225
            ],
            [
                "\u2581considered",
                -8.237643241882324
            ],
            [
                "\u25818",
                -8.349406242370605
            ],
            [
                "\u2581based",
                -8.244152069091797
            ],
            [
                "\u2581Women",
                -8.236454010009766
            ],
            [
                "\u5176\u4ed6",
                -7.7867021560668945
            ],
            [
                "\u2581society",
                -8.243534088134766
            ],
            [
                "\u2581delegation",
                -8.257403373718262
            ],
            [
                "\u2581address",
                -8.234477996826172
            ],
            [
                "\u2581promote",
                -8.249844551086426
            ],
            [
                "\u2581September",
                -8.198681831359863
            ],
            [
                "\u2581submitted",
                -8.255861282348633
            ],
            [
                "\u673a\u5236",
                -7.906008243560791
            ],
            [
                "\u258115",
                -8.197006225585938
            ],
            [
                "\u2581conflict",
                -8.252543449401855
            ],
            [
                "\u2581developed",
                -8.260144233703613
            ],
            [
                "\u7684\u56fd\u5bb6",
                -7.98112678527832
            ],
            [
                "\u5ba1\u8bae",
                -7.855103492736816
            ],
            [
                "13",
                -8.015084266662598
            ],
            [
                "\u7cfb\u7edf",
                -7.936575889587402
            ],
            [
                "\u65b0",
                -7.788984775543213
            ],
            [
                "\u2581Action",
                -8.248977661132812
            ],
            [
                "\u25816.",
                -8.395978927612305
            ],
            [
                "\u7ed9",
                -7.921828746795654
            ],
            [
                "\u53c2\u52a0",
                -7.907980442047119
            ],
            [
                "\u5229\u7528",
                -7.921428203582764
            ],
            [
                "25",
                -8.045637130737305
            ],
            [
                "\u5f97\u5230",
                -7.916839599609375
            ],
            [
                "\u7f14\u7ea6\u56fd",
                -7.871743679046631
            ],
            [
                "\u2581particularly",
                -8.270198822021484
            ],
            [
                "\u2581Union",
                -8.264389038085938
            ],
            [
                "\u2581November",
                -8.212334632873535
            ],
            [
                "\u2581participation",
                -8.269506454467773
            ],
            [
                "\u5b89\u5168",
                -7.898536205291748
            ],
            [
                "\u2581life",
                -8.20582103729248
            ],
            [
                "\u2581If",
                -8.183335304260254
            ],
            [
                "\u2581resolutions",
                -8.306743621826172
            ],
            [
                "\u7684\u95ee\u9898",
                -8.046459197998047
            ],
            [
                "\u2581sustainable",
                -8.273158073425293
            ],
            [
                "\u25816",
                -8.165854454040527
            ],
            [
                "\u8bf4\u660e",
                -7.929365634918213
            ],
            [
                "\u2581October",
                -8.21451473236084
            ],
            [
                "\u2581poverty",
                -8.281018257141113
            ],
            [
                "\u63d0\u4ea4",
                -7.935922145843506
            ],
            [
                "\u2581child",
                -8.259777069091797
            ],
            [
                "or",
                -8.581064224243164
            ],
            [
                "\u51cf\u5c11",
                -7.963189125061035
            ],
            [
                "\u2581because",
                -8.24759292602539
            ],
            [
                "\u591a",
                -7.965551376342773
            ],
            [
                "\u2581bodies",
                -8.286986351013184
            ],
            [
                "\u2581plan",
                -8.266356468200684
            ],
            [
                "16",
                -8.028619766235352
            ],
            [
                "\u7684\u60c5\u51b5",
                -8.0184326171875
            ],
            [
                "\u2581sector",
                -8.286764144897461
            ],
            [
                "\u2581document",
                -8.27702522277832
            ],
            [
                "n",
                -8.562251091003418
            ],
            [
                "\u548c\u5176\u4ed6",
                -8.00885009765625
            ],
            [
                "\u258130",
                -8.229894638061523
            ],
            [
                "\u2581levels",
                -8.310320854187012
            ],
            [
                "\u4eba\u5458",
                -7.9444050788879395
            ],
            [
                "2005",
                -7.924270153045654
            ],
            [
                "\u2581note",
                -8.291107177734375
            ],
            [
                "\u2581specific",
                -8.305398941040039
            ],
            [
                "\u4eba\u6743",
                -7.9579668045043945
            ],
            [
                "al",
                -8.6826753616333
            ],
            [
                "\u5176\u4e2d",
                -7.953525543212891
            ],
            [
                "\u2581Article",
                -8.304401397705078
            ],
            [
                "\u2581going",
                -8.130206108093262
            ],
            [
                "\u8c03\u67e5",
                -7.955704689025879
            ],
            [
                "\u25819",
                -8.444899559020996
            ],
            [
                "\u554a",
                -7.9449310302734375
            ],
            [
                "\u2581help",
                -8.225946426391602
            ],
            [
                "\u258112",
                -8.245810508728027
            ],
            [
                "\u2581Mission",
                -8.305710792541504
            ],
            [
                "19",
                -8.041293144226074
            ],
            [
                "\u2581field",
                -8.302703857421875
            ],
            [
                "\u2581long",
                -8.264739036560059
            ],
            [
                "\u5168\u7403",
                -7.943855285644531
            ],
            [
                "\u6307\u51fa",
                -7.9723100662231445
            ],
            [
                "\u6b63\u5728",
                -7.970860481262207
            ],
            [
                "\u2581required",
                -8.322358131408691
            ],
            [
                "31",
                -8.018717765808105
            ],
            [
                "\u2581current",
                -8.322441101074219
            ],
            [
                "\u2581come",
                -8.180497169494629
            ],
            [
                "\u2581still",
                -8.270116806030273
            ],
            [
                "\u2581weapons",
                -8.322012901306152
            ],
            [
                "\u5462",
                -7.9868292808532715
            ],
            [
                "\u2581project",
                -8.313714027404785
            ],
            [
                "23",
                -8.087728500366211
            ],
            [
                "\u2581Department",
                -8.314831733703613
            ],
            [
                "\u2581agencies",
                -8.324175834655762
            ],
            [
                "\u2581future",
                -8.325441360473633
            ],
            [
                "\u65af",
                -8.114933013916016
            ],
            [
                "\u2581civil",
                -8.32890510559082
            ],
            [
                "\u8d44\u6e90",
                -7.964382171630859
            ],
            [
                "\u6587\u4ef6",
                -7.936574459075928
            ],
            [
                "\u5982",
                -7.968023777008057
            ],
            [
                "\u2581requirements",
                -8.346282958984375
            ],
            [
                "\u8fd9\u4e2a",
                -7.959933280944824
            ],
            [
                "\u5177\u6709",
                -8.048659324645996
            ],
            [
                "\u5236\u5b9a",
                -7.978703498840332
            ],
            [
                "\u7814\u7a76",
                -7.975455284118652
            ],
            [
                "\u652f\u52a9",
                -7.994357109069824
            ],
            [
                "\u2581military",
                -8.3428373336792
            ],
            [
                "\u79d8\u4e66\u5904",
                -7.92659330368042
            ],
            [
                "22",
                -8.104203224182129
            ],
            [
                "\u2581Declaration",
                -8.344374656677246
            ],
            [
                "\u597d",
                -7.961647987365723
            ],
            [
                "\u4f5c\u51fa",
                -8.02360725402832
            ],
            [
                "\u2581requested",
                -8.353303909301758
            ],
            [
                "\u2581operations",
                -8.366467475891113
            ],
            [
                "\u2581various",
                -8.34737491607666
            ],
            [
                "\u2581Law",
                -8.346323013305664
            ],
            [
                "\u5e76\u4e14",
                -8.014354705810547
            ],
            [
                "\u2581Governments",
                -8.393438339233398
            ],
            [
                "\u2581authorities",
                -8.349359512329102
            ],
            [
                "\u9886\u57df",
                -8.020028114318848
            ],
            [
                "in",
                -8.623550415039062
            ],
            [
                "\u2581\u4e0d",
                -8.133138656616211
            ],
            [
                "up",
                -8.394412994384766
            ],
            [
                "\u258120",
                -8.296608924865723
            ],
            [
                "\u2581context",
                -8.364954948425293
            ],
            [
                "\u8bc4\u4f30",
                -8.010382652282715
            ],
            [
                "\u6d89\u53ca",
                -8.035628318786621
            ],
            [
                "21",
                -8.13305377960205
            ],
            [
                "\u2581additional",
                -8.374953269958496
            ],
            [
                "\u2581March",
                -8.310426712036133
            ],
            [
                "\u5f97",
                -8.032209396362305
            ],
            [
                "D",
                -8.541324615478516
            ],
            [
                "\u2581addition",
                -8.37568473815918
            ],
            [
                "\u672c",
                -7.995702743530273
            ],
            [
                "\u800c\u4e14",
                -7.9804911613464355
            ],
            [
                "\u7a0b\u5e8f",
                -8.006449699401855
            ],
            [
                "\u56fd",
                -8.093300819396973
            ],
            [
                "\u25812005",
                -8.654358863830566
            ],
            [
                "24",
                -8.141036033630371
            ],
            [
                "\u5f71\u54cd",
                -7.998702049255371
            ],
            [
                "\u25817.",
                -8.5355863571167
            ],
            [
                "\u2581p",
                -8.482287406921387
            ],
            [
                "\u2581\u8fd9",
                -8.053805351257324
            ],
            [
                "\u63a5\u53d7",
                -8.041854858398438
            ],
            [
                "\u4e2d\u5fc3",
                -8.079057693481445
            ],
            [
                "\u2581means",
                -8.371596336364746
            ],
            [
                "\u2581\u59d4\u5458\u4f1a",
                -8.121129035949707
            ],
            [
                "\u2581High",
                -8.390355110168457
            ],
            [
                "\u8d1f\u8d23",
                -8.05705738067627
            ],
            [
                "\u2581control",
                -8.376001358032227
            ],
            [
                "\u55ce",
                -8.055434226989746
            ],
            [
                "\u2581representatives",
                -8.403778076171875
            ],
            [
                "\u25817",
                -8.281064987182617
            ],
            [
                "\u2581agreed",
                -8.399955749511719
            ],
            [
                "\u2581then",
                -8.333503723144531
            ],
            [
                "\u2581police",
                -8.375875473022461
            ],
            [
                "\u2581even",
                -8.32193374633789
            ],
            [
                "\u2581Protocol",
                -8.385464668273926
            ],
            [
                "\u8fdb\u4e00\u6b65",
                -8.058993339538574
            ],
            [
                "\u2581\u6839\u636e",
                -8.142562866210938
            ],
            [
                "\u2581contained",
                -8.403830528259277
            ],
            [
                "\u5404\u56fd",
                -8.004847526550293
            ],
            [
                "2000",
                -8.031682968139648
            ],
            [
                "\u2581South",
                -8.361336708068848
            ],
            [
                "\u2581down",
                -8.257713317871094
            ],
            [
                "\u2581Report",
                -8.386590957641602
            ],
            [
                "\u6bd4",
                -8.066742897033691
            ],
            [
                "\u2581mandate",
                -8.403148651123047
            ],
            [
                "\u2581towards",
                -8.409981727600098
            ],
            [
                "\u2581given",
                -8.411859512329102
            ],
            [
                "\u5de5\u4f5c\u7ec4",
                -8.045208930969238
            ],
            [
                "\u4e4b\u540e",
                -8.080450057983398
            ],
            [
                "\u2581However",
                -8.421126365661621
            ],
            [
                "\u2581April",
                -8.364015579223633
            ],
            [
                "\u81ea",
                -8.067254066467285
            ],
            [
                "\u258118",
                -8.368310928344727
            ],
            [
                "\u2581concern",
                -8.421749114990234
            ],
            [
                "\u2581impact",
                -8.417003631591797
            ],
            [
                "\u2581above",
                -8.420797348022461
            ],
            [
                "\u2581approach",
                -8.430388450622559
            ],
            [
                "\u2581representative",
                -8.423182487487793
            ],
            [
                "\u2581continued",
                -8.432785987854004
            ],
            [
                "I",
                -8.694180488586426
            ],
            [
                "\u258111",
                -8.381643295288086
            ],
            [
                "\u2581change",
                -8.406583786010742
            ],
            [
                "28",
                -8.207925796508789
            ],
            [
                "\u2581family",
                -8.394417762756348
            ],
            [
                "\u2581projects",
                -8.44156551361084
            ],
            [
                "CN",
                -8.794979095458984
            ],
            [
                "\u2581conditions",
                -8.442760467529297
            ],
            [
                "\u89c1",
                -8.080401420593262
            ],
            [
                "\u2581attention",
                -8.435060501098633
            ],
            [
                "o",
                -8.799424171447754
            ],
            [
                "2004",
                -8.039859771728516
            ],
            [
                "2006",
                -8.082069396972656
            ],
            [
                "\u76ee\u6807",
                -8.029882431030273
            ],
            [
                "\u2581Rapporteur",
                -8.425942420959473
            ],
            [
                "\u2581population",
                -8.429339408874512
            ],
            [
                "\u2581does",
                -8.38089370727539
            ],
            [
                "\u534f\u52a9",
                -8.090523719787598
            ],
            [
                "\u2581Affairs",
                -8.4238862991333
            ],
            [
                "\u80fd\u529b",
                -8.052496910095215
            ],
            [
                "\u5de5\u4f5c\u4eba\u5458",
                -8.078761100769043
            ],
            [
                "2002",
                -8.07553482055664
            ],
            [
                "\u5b50",
                -8.134163856506348
            ],
            [
                "2001",
                -8.103365898132324
            ],
            [
                "\u5404\u79cd",
                -8.069530487060547
            ],
            [
                "\u4e3b\u8981",
                -8.020689010620117
            ],
            [
                "\u6807\u51c6",
                -8.091264724731445
            ],
            [
                "\u2581organization",
                -8.429572105407715
            ],
            [
                "\u2581give",
                -8.368759155273438
            ],
            [
                ".1",
                -8.683439254760742
            ],
            [
                "\u5206",
                -8.148293495178223
            ],
            [
                "\u2581\u5bf9",
                -8.499359130859375
            ],
            [
                "2003",
                -8.06234073638916
            ],
            [
                "\u5b89\u5168\u7406\u4e8b\u4f1a",
                -8.110590934753418
            ],
            [
                "\u2581request",
                -8.436657905578613
            ],
            [
                "\u6700",
                -8.17186164855957
            ],
            [
                "\u7684\u6743\u5229",
                -8.16273021697998
            ],
            [
                "27",
                -8.234313011169434
            ],
            [
                ")\u3001",
                -8.412328720092773
            ],
            [
                "\u2581member",
                -8.442843437194824
            ],
            [
                "\u2581concerning",
                -8.443524360656738
            ],
            [
                "\u2581status",
                -8.46046257019043
            ],
            [
                "\u79d8\u4e66\u957f",
                -8.073108673095703
            ],
            [
                "\u2581private",
                -8.45242691040039
            ],
            [
                "\u4e4b",
                -8.161773681640625
            ],
            [
                "\u4e4b\u95f4",
                -8.074934005737305
            ],
            [
                "\u51fa",
                -8.109288215637207
            ],
            [
                "\u534f\u8c03",
                -8.070025444030762
            ],
            [
                "\u2581major",
                -8.461874008178711
            ],
            [
                "\u2581\u4f46\u662f",
                -8.15922737121582
            ],
            [
                "\u2581establishment",
                -8.450708389282227
            ],
            [
                "\u4fe1\u606f",
                -8.06578540802002
            ],
            [
                "\u8868\u793a",
                -8.124506950378418
            ],
            [
                "\u7406\u4e8b\u4f1a",
                -8.090384483337402
            ],
            [
                "\u6210\u5458",
                -8.096236228942871
            ],
            [
                "\u65e0",
                -8.23320198059082
            ],
            [
                "\u6761\u7ea6",
                -8.179483413696289
            ],
            [
                "\u73af\u5883",
                -8.084789276123047
            ],
            [
                "\u2581Well",
                -8.283772468566895
            ],
            [
                "\u5b89\u6392",
                -8.15017318725586
            ],
            [
                "\u2581relating",
                -8.467084884643555
            ],
            [
                "\u2581January",
                -8.40865421295166
            ],
            [
                "\u8003\u8651",
                -8.126354217529297
            ],
            [
                "\u25812006",
                -8.76930046081543
            ],
            [
                "\u8fc7",
                -8.10268497467041
            ],
            [
                "\u2581discrimination",
                -8.469937324523926
            ],
            [
                "\u56e0\u6b64",
                -8.098963737487793
            ],
            [
                "\u2581say",
                -8.338184356689453
            ],
            [
                "\u2581statement",
                -8.476385116577148
            ],
            [
                "\u2581gonna",
                -8.31966781616211
            ],
            [
                "see",
                -8.470281600952148
            ],
            [
                "\u2581rules",
                -8.486860275268555
            ],
            [
                "\u5b83\u4eec",
                -8.086496353149414
            ],
            [
                "\u63f4\u52a9",
                -8.137670516967773
            ],
            [
                "\u2581consider",
                -8.466612815856934
            ],
            [
                "\u60f3",
                -8.117008209228516
            ],
            [
                "\u2581justice",
                -8.476394653320312
            ],
            [
                "\u2581How",
                -8.295190811157227
            ],
            [
                "\u25818.",
                -8.643839836120605
            ],
            [
                "on",
                -8.792699813842773
            ],
            [
                "\u62c9",
                -8.195596694946289
            ],
            [
                "\u2581care",
                -8.427766799926758
            ],
            [
                "\u5730\u533a",
                -8.107728958129883
            ],
            [
                "\u258119",
                -8.601073265075684
            ],
            [
                "\u4e3b\u5e2d",
                -8.125387191772461
            ],
            [
                "26",
                -8.250962257385254
            ],
            [
                "\u2581Palestinian",
                -8.49217700958252
            ],
            [
                "\u2581comprehensive",
                -8.496790885925293
            ],
            [
                "\u2581second",
                -8.457634925842285
            ],
            [
                "\u2581better",
                -8.428507804870605
            ],
            [
                "\u2581question",
                -8.48558521270752
            ],
            [
                "\u2014",
                -10.786314010620117
            ],
            [
                "\u5236\u5ea6",
                -8.173233985900879
            ],
            [
                "\u662f\u5426",
                -8.152994155883789
            ],
            [
                "\u2581force",
                -8.484177589416504
            ],
            [
                "\u7279",
                -8.250746726989746
            ],
            [
                "\u25812000",
                -8.756811141967773
            ],
            [
                "\u2581total",
                -8.510525703430176
            ],
            [
                "\u56e0",
                -8.163804054260254
            ],
            [
                "\u2581legislation",
                -8.506139755249023
            ],
            [
                "\u2581entitled",
                -8.499464988708496
            ],
            [
                "\u2581own",
                -8.45561695098877
            ],
            [
                "\u25812002",
                -8.7611665725708
            ],
            [
                "\u2581monitoring",
                -8.513104438781738
            ],
            [
                "\u25812004",
                -8.779428482055664
            ],
            [
                "\u2581provision",
                -8.503840446472168
            ],
            [
                "\u2581reporting",
                -8.523259162902832
            ],
            [
                "\u2581systems",
                -8.547972679138184
            ],
            [
                "\u2581taking",
                -8.49901008605957
            ],
            [
                "\u5e94\u5f53",
                -8.1329927444458
            ],
            [
                "2007",
                -8.162534713745117
            ],
            [
                "\u53d7",
                -8.197237968444824
            ],
            [
                "\u2581whether",
                -8.509953498840332
            ],
            [
                "\u2581inter",
                -8.523876190185547
            ],
            [
                "2008",
                -8.15915298461914
            ],
            [
                "\u2581expressed",
                -8.53258228302002
            ],
            [
                "\u2581strengthen",
                -8.521183013916016
            ],
            [
                "\u2581coordination",
                -8.525321960449219
            ],
            [
                "\u505a",
                -8.200759887695312
            ],
            [
                "\u2581received",
                -8.513578414916992
            ],
            [
                "\u2581F",
                -8.911916732788086
            ],
            [
                "\u653f\u6cbb",
                -8.181690216064453
            ],
            [
                "\u2581domestic",
                -8.531393051147461
            ],
            [
                "\u2581men",
                -8.484649658203125
            ],
            [
                "\u2581addressed",
                -8.526034355163574
            ],
            [
                "\u6743\u5229",
                -8.150300979614258
            ],
            [
                "\u4e16\u754c",
                -8.164298057556152
            ],
            [
                "\u2581Yes",
                -8.246463775634766
            ],
            [
                "\u4e3e\u884c",
                -8.167208671569824
            ],
            [
                "\u4e4b\u524d",
                -8.195623397827148
            ],
            [
                "\u57f9\u8bad",
                -8.152471542358398
            ],
            [
                "\u25812003",
                -8.805822372436523
            ],
            [
                "\u2581much",
                -8.439770698547363
            ],
            [
                "\u2581existing",
                -8.540624618530273
            ],
            [
                "\u2581different",
                -8.52021598815918
            ],
            [
                "\u2581mechanisms",
                -8.547436714172363
            ],
            [
                "\u2581implement",
                -8.538521766662598
            ],
            [
                "\u2581Executive",
                -8.52381420135498
            ],
            [
                "\u2581responsibility",
                -8.543976783752441
            ],
            [
                "\u2581II",
                -8.513521194458008
            ],
            [
                "29",
                -8.320026397705078
            ],
            [
                "\u90e8\u95e8",
                -8.19079303741455
            ],
            [
                "\u2581armed",
                -8.542266845703125
            ],
            [
                "\u2581result",
                -8.531189918518066
            ],
            [
                "\u258116",
                -8.487600326538086
            ],
            [
                "\u2581therefore",
                -8.548747062683105
            ],
            [
                "\u2581practices",
                -8.552116394042969
            ],
            [
                "\u8bf7",
                -8.179132461547852
            ],
            [
                "\u2581increased",
                -8.553971290588379
            ],
            [
                "\u2581especially",
                -8.552839279174805
            ],
            [
                "\u5f00\u59cb",
                -8.191404342651367
            ],
            [
                "\u2581last",
                -8.486930847167969
            ],
            [
                "\u2581costs",
                -8.557036399841309
            ],
            [
                "\u6709\u5173\u7684",
                -8.312835693359375
            ],
            [
                "\u2581annex",
                -8.5308256149292
            ],
            [
                "\u2581man",
                -8.389906883239746
            ],
            [
                "\u2581Act",
                -8.537843704223633
            ],
            [
                "\u2581too",
                -8.42228889465332
            ],
            [
                "\u63d0\u9ad8",
                -8.228510856628418
            ],
            [
                "\u2581\u5982\u679c",
                -8.236894607543945
            ],
            [
                "\u2581principles",
                -8.561359405517578
            ],
            [
                "\u5171\u540c",
                -8.222990989685059
            ],
            [
                "\u2581technology",
                -8.559919357299805
            ],
            [
                "\u258114",
                -8.45836353302002
            ],
            [
                "\u2581Arab",
                -8.480640411376953
            ],
            [
                "\u70b9",
                -8.215645790100098
            ],
            [
                "\u2581included",
                -8.555133819580078
            ],
            [
                "\u2581procedures",
                -8.568503379821777
            ],
            [
                "\u2581obligations",
                -8.576126098632812
            ],
            [
                "\u258113",
                -8.512901306152344
            ],
            [
                "\u5e2e\u52a9",
                -8.218428611755371
            ],
            [
                "\u672a",
                -8.241778373718262
            ],
            [
                "\u4ee3\u8868\u56e2",
                -8.21520709991455
            ],
            [
                "\u5f88",
                -8.179579734802246
            ],
            [
                "%",
                -9.717087745666504
            ],
            [
                "\u25819.",
                -8.741143226623535
            ],
            [
                "\u6309\u7167",
                -8.189269065856934
            ],
            [
                "\u5bf9\u4e8e",
                -8.207039833068848
            ],
            [
                "\u2581fully",
                -8.56911563873291
            ],
            [
                "\u8d39\u7528",
                -8.222326278686523
            ],
            [
                "\u6cd5\u9662",
                -8.23096752166748
            ],
            [
                "\u2581personnel",
                -8.566718101501465
            ],
            [
                "\u2581results",
                -8.579950332641602
            ],
            [
                "\u25812007",
                -8.89988899230957
            ],
            [
                "\u884c\u4e3a",
                -8.243856430053711
            ],
            [
                "\u7684\u5efa\u8bae",
                -8.3390531539917
            ],
            [
                "\u516c\u53f8",
                -8.247098922729492
            ],
            [
                "\u5f3a\u8c03",
                -8.189470291137695
            ],
            [
                "\u2581might",
                -8.527430534362793
            ],
            [
                "\u25812008",
                -8.909699440002441
            ],
            [
                "\u76ee\u524d",
                -8.185418128967285
            ],
            [
                "\u65b9\u5f0f",
                -8.20634937286377
            ],
            [
                "\u2581key",
                -8.562617301940918
            ],
            [
                "\u53d7\u5230",
                -8.242308616638184
            ],
            [
                "\u4ec0\u4e48",
                -8.213799476623535
            ],
            [
                "\u5916",
                -8.26071834564209
            ],
            [
                "\u2581rule",
                -8.573318481445312
            ],
            [
                "\u6c34",
                -8.261384010314941
            ],
            [
                "\u2581\u4ed6\u4eec",
                -8.344395637512207
            ],
            [
                "\u7528\u4e8e",
                -8.257457733154297
            ],
            [
                "\u258117",
                -8.528539657592773
            ],
            [
                "\u2581standards",
                -8.59563159942627
            ],
            [
                "\u5982\u679c",
                -8.210833549499512
            ],
            [
                "\u2581water",
                -8.539133071899414
            ],
            [
                "\u2581criminal",
                -8.582155227661133
            ],
            [
                "\u65f6\u95f4",
                -8.243813514709473
            ],
            [
                "\u5fb7",
                -8.339591026306152
            ],
            [
                "\u2581adoption",
                -8.608429908752441
            ],
            [
                "\u2581small",
                -8.584654808044434
            ],
            [
                "\u2581terms",
                -8.608461380004883
            ],
            [
                "\u2581subject",
                -8.588540077209473
            ],
            [
                "\u2581fact",
                -8.582619667053223
            ],
            [
                "\u5e94\u8be5",
                -8.209820747375488
            ],
            [
                "\u25812001",
                -8.850126266479492
            ],
            [
                "\u8d44\u6599",
                -8.218584060668945
            ],
            [
                "\u6210\u4e3a",
                -8.263505935668945
            ],
            [
                "\u90e8\u5206",
                -8.245564460754395
            ],
            [
                "\u2581regarding",
                -8.609259605407715
            ],
            [
                "\u2581These",
                -8.594367027282715
            ],
            [
                "\u2581environment",
                -8.602204322814941
            ],
            [
                "\u5c0f\u7ec4",
                -8.247299194335938
            ],
            [
                "\u53d1\u8a00",
                -8.246935844421387
            ],
            [
                "\u2581funds",
                -8.603958129882812
            ],
            [
                "\u2581already",
                -8.572521209716797
            ],
            [
                "\u2581000",
                -8.312384605407715
            ],
            [
                "\u4e2d\u7684",
                -8.251532554626465
            ],
            [
                "\u2581Representative",
                -8.596938133239746
            ],
            [
                "\u539f\u5219",
                -8.26198959350586
            ],
            [
                "\u627f\u8bfa",
                -8.251343727111816
            ],
            [
                "\u258131",
                -8.557693481445312
            ],
            [
                "\u65b9\u9762\u7684",
                -8.311147689819336
            ],
            [
                "\u81ea\u5df1",
                -8.230327606201172
            ],
            [
                "\u2581contributions",
                -8.622454643249512
            ],
            [
                "\u00e9",
                -10.577470779418945
            ],
            [
                "\u2581day",
                -8.508524894714355
            ],
            [
                "\u2581With",
                -8.605279922485352
            ],
            [
                "*",
                -9.252291679382324
            ],
            [
                "\u5982\u4f55",
                -8.27804946899414
            ],
            [
                "\u2581improve",
                -8.62143611907959
            ],
            [
                "\u4e0d\u80fd",
                -8.246655464172363
            ],
            [
                "\u2581follow",
                -8.600395202636719
            ],
            [
                "\u9ad8",
                -8.342649459838867
            ],
            [
                "\u2581peacekeeping",
                -8.639546394348145
            ],
            [
                "\u2581challenges",
                -8.634443283081055
            ],
            [
                "\u534f\u5b9a",
                -8.326176643371582
            ],
            [
                "\u7531\u4e8e",
                -8.261306762695312
            ],
            [
                "\u4eba\u6c11",
                -8.33973217010498
            ],
            [
                "\u5219",
                -8.294161796569824
            ],
            [
                "\u2581My",
                -8.491681098937988
            ],
            [
                "\u2581agreement",
                -8.63160228729248
            ],
            [
                "\u975e\u6d32",
                -8.246864318847656
            ],
            [
                "\u2581decided",
                -8.630329132080078
            ],
            [
                "\u2581Ministry",
                -8.636326789855957
            ],
            [
                "\u5c0f",
                -8.261167526245117
            ],
            [
                "\u2581risk",
                -8.624092102050781
            ],
            [
                "\u627f\u8ba4",
                -8.313434600830078
            ],
            [
                "\u90a3",
                -8.266031265258789
            ],
            [
                "\u2581consultations",
                -8.649683952331543
            ],
            [
                "\u2581\u4f46",
                -8.328707695007324
            ],
            [
                "\u2581providing",
                -8.6467866897583
            ],
            [
                "\u2581response",
                -8.622991561889648
            ],
            [
                "\u2581person",
                -8.611932754516602
            ],
            [
                "\u5973\u58eb",
                -8.359504699707031
            ],
            [
                "\u2581strengthening",
                -8.656302452087402
            ],
            [
                "\u2581called",
                -8.618821144104004
            ],
            [
                "based",
                -8.63908863067627
            ],
            [
                "\u2581Come",
                -8.435080528259277
            ],
            [
                "\u2581secretariat",
                -8.642777442932129
            ],
            [
                "\u5e0c\u671b",
                -8.275955200195312
            ],
            [
                "\u2581\u662f",
                -8.772967338562012
            ],
            [
                "\u2581decisions",
                -8.678939819335938
            ],
            [
                "\u8d44\u91d1",
                -8.307549476623535
            ],
            [
                "\u975e",
                -8.303988456726074
            ],
            [
                "\u2581August",
                -8.592793464660645
            ],
            [
                "\u5bb6\u5ead",
                -8.298967361450195
            ],
            [
                "\u2581indigenous",
                -8.654784202575684
            ],
            [
                "\u2581together",
                -8.615230560302734
            ],
            [
                "\u53c8",
                -8.273002624511719
            ],
            [
                "\u2581terrorism",
                -8.673362731933594
            ],
            [
                "\u2581food",
                -8.64372730255127
            ],
            [
                "\u2581best",
                -8.619099617004395
            ],
            [
                "\u6570\u636e",
                -8.318419456481934
            ],
            [
                "\u2581commitment",
                -8.669049263000488
            ],
            [
                "\u2581victims",
                -8.666762351989746
            ],
            [
                "\u2581Advisory",
                -8.65933609008789
            ],
            [
                "\u258110.",
                -8.796603202819824
            ],
            [
                "\u57fa\u91d1",
                -8.389095306396484
            ],
            [
                "h",
                -9.087372779846191
            ],
            [
                "\u9884\u7b97",
                -8.333574295043945
            ],
            [
                "\u2581call",
                -8.59893798828125
            ],
            [
                "\u540c\u65f6",
                -8.26473331451416
            ],
            [
                "\u9f13\u52b1",
                -8.2953462600708
            ],
            [
                "\u2581post",
                -8.65453815460205
            ],
            [
                "\u2581off",
                -8.574824333190918
            ],
            [
                "\u2581HIV",
                -8.664656639099121
            ],
            [
                "\u2581least",
                -8.64914608001709
            ],
            [
                "\u2581service",
                -8.657264709472656
            ],
            [
                "\u2581behalf",
                -8.661620140075684
            ],
            [
                "\u2581disarmament",
                -8.683984756469727
            ],
            [
                "\u2581America",
                -8.64342212677002
            ],
            [
                "un",
                -9.21784782409668
            ],
            [
                "governmental",
                -8.660990715026855
            ],
            [
                "\u2581de",
                -8.838788986206055
            ],
            [
                "\u2581Let",
                -8.490169525146484
            ],
            [
                "\u2581amount",
                -8.663454055786133
            ],
            [
                "\u7740",
                -8.3480224609375
            ],
            [
                "\u90e8",
                -8.354164123535156
            ],
            [
                "\u8ba9",
                -8.28825855255127
            ],
            [
                "\u79d1",
                -8.432076454162598
            ],
            [
                "\u2581assessment",
                -8.676490783691406
            ],
            [
                "\u2581environmental",
                -8.679832458496094
            ],
            [
                "\u2581Do",
                -8.576175689697266
            ],
            [
                "\u65e0\u6cd5",
                -8.376254081726074
            ],
            [
                "\u4e00\u9879",
                -8.321157455444336
            ],
            [
                "\u2581February",
                -8.613431930541992
            ],
            [
                "\u529e\u6cd5",
                -8.308971405029297
            ],
            [
                "building",
                -8.6791410446167
            ],
            [
                "\u2581example",
                -8.67866325378418
            ],
            [
                "\u2581initiatives",
                -8.700284004211426
            ],
            [
                "\u2581Iraq",
                -8.667235374450684
            ],
            [
                "\u2581put",
                -8.614095687866211
            ],
            [
                "r",
                -8.981640815734863
            ],
            [
                "\u2581government",
                -8.661916732788086
            ],
            [
                "\u2581*",
                -8.360742568969727
            ],
            [
                "\u2581due",
                -8.694225311279297
            ],
            [
                "\u6ce8\u610f\u5230",
                -8.32733154296875
            ],
            [
                "\u2581matter",
                -8.638163566589355
            ],
            [
                "\u5b8c\u6210",
                -8.346902847290039
            ],
            [
                "\u2581recent",
                -8.69736099243164
            ],
            [
                "\u2581mission",
                -8.687166213989258
            ],
            [
                "\u2581five",
                -8.674935340881348
            ],
            [
                "\u2581prevention",
                -8.705355644226074
            ],
            [
                "\u5168\u9762",
                -8.337226867675781
            ],
            [
                "\u4f1a\u5458\u56fd",
                -8.322872161865234
            ],
            [
                "\u2581Israel",
                -8.669013023376465
            ],
            [
                "\u2581Why",
                -8.535821914672852
            ],
            [
                "\u9879",
                -8.345027923583984
            ],
            [
                "\u2581develop",
                -8.707931518554688
            ],
            [
                "\u2581another",
                -8.657724380493164
            ],
            [
                "\u5177\u4f53",
                -8.334127426147461
            ],
            [
                "\u2581provides",
                -8.74376106262207
            ],
            [
                "\u2581Hey",
                -8.438008308410645
            ],
            [
                "F",
                -8.776779174804688
            ],
            [
                "\u548c\u5e73",
                -8.366469383239746
            ],
            [
                "\u2581reported",
                -8.710723876953125
            ],
            [
                "\u2581several",
                -8.706559181213379
            ],
            [
                "\u2581dialogue",
                -8.721169471740723
            ],
            [
                "\u2581meet",
                -8.673892974853516
            ],
            [
                "\u5316",
                -8.420371055603027
            ],
            [
                "\u7684\u80fd\u529b",
                -8.456375122070312
            ],
            [
                "\u514b",
                -8.484015464782715
            ],
            [
                "\u2581took",
                -8.669857025146484
            ],
            [
                "\u2581every",
                -8.67261028289795
            ],
            [
                "\u6743",
                -8.4375
            ],
            [
                "\u2581G",
                -9.284832954406738
            ],
            [
                "\u4ee5\u8272\u5217",
                -8.33204174041748
            ],
            [
                "\u5929",
                -8.38255500793457
            ],
            [
                "\u2581actions",
                -8.752880096435547
            ],
            [
                "\u2581...",
                -9.381974220275879
            ],
            [
                "\u7684\u5f71\u54cd",
                -8.4816255569458
            ],
            [
                "\u76f8\u5173",
                -8.243509292602539
            ],
            [
                "\u2581space",
                -8.714960098266602
            ],
            [
                "\u2581equality",
                -8.742450714111328
            ],
            [
                "\u2581common",
                -8.732524871826172
            ],
            [
                "\u2581never",
                -8.607922554016113
            ],
            [
                "\u2581significant",
                -8.743367195129395
            ],
            [
                "\u2581little",
                -8.602602005004883
            ],
            [
                "\u2581strategy",
                -8.736565589904785
            ],
            [
                "\u91c7\u7528",
                -8.405099868774414
            ],
            [
                "\u6309",
                -8.375003814697266
            ],
            [
                "\u5bb6",
                -8.39854907989502
            ],
            [
                "\u6539\u5584",
                -8.379079818725586
            ],
            [
                "\u2581land",
                -8.70287036895752
            ],
            [
                "\u2581East",
                -8.740337371826172
            ],
            [
                "\u2581four",
                -8.714522361755371
            ],
            [
                "\u258111.",
                -8.878728866577148
            ],
            [
                "\u2581Service",
                -8.72645092010498
            ],
            [
                "\u2581Ms",
                -8.737126350402832
            ],
            [
                "1999",
                -8.398789405822754
            ],
            [
                "\u4ee5\u4e0b",
                -8.399691581726074
            ],
            [
                "\u2581cost",
                -8.731966018676758
            ],
            [
                "\u2581again",
                -8.64544677734375
            ],
            [
                "\u2581application",
                -8.746968269348145
            ],
            [
                "\u2581problems",
                -8.755029678344727
            ],
            [
                "\u4e8c",
                -8.415545463562012
            ],
            [
                "\u65b9\u6cd5",
                -8.368946075439453
            ],
            [
                "\u90a3\u4e9b",
                -8.354276657104492
            ],
            [
                "\u2581reform",
                -8.755280494689941
            ],
            [
                "\u2581missions",
                -8.767854690551758
            ],
            [
                "\u258122",
                -8.688934326171875
            ],
            [
                "\u2581really",
                -8.581136703491211
            ],
            [
                "\u2581matters",
                -8.766901016235352
            ],
            [
                "\u2581look",
                -8.599495887756348
            ],
            [
                "\u2581next",
                -8.713713645935059
            ],
            [
                "\u2581trafficking",
                -8.767278671264648
            ],
            [
                "\u2581done",
                -8.676787376403809
            ],
            [
                "\u2581lack",
                -8.751598358154297
            ],
            [
                "\u4f8b\u5982",
                -8.380141258239746
            ],
            [
                "es",
                -8.928157806396484
            ],
            [
                "\u2581documents",
                -8.76620101928711
            ],
            [
                "\u2581something",
                -8.60685920715332
            ],
            [
                "\u4e0d\u662f",
                -8.395984649658203
            ],
            [
                "2009",
                -8.399493217468262
            ],
            [
                "\u2581am",
                -8.680270195007324
            ],
            [
                "\u518d",
                -8.389551162719727
            ],
            [
                "\u258121",
                -8.677414894104004
            ],
            [
                "\u7279\u6d3e\u56e2",
                -8.440431594848633
            ],
            [
                "\u2581requests",
                -8.78318977355957
            ],
            [
                "\u2581\u8fd9\u4e9b",
                -8.459548950195312
            ],
            [
                "\u2581arms",
                -8.760048866271973
            ],
            [
                "\u2581\u8054\u5408\u56fd",
                -8.640464782714844
            ],
            [
                "\u6846\u67b6",
                -8.428435325622559
            ],
            [
                "\u5c24\u5176\u662f",
                -8.384406089782715
            ],
            [
                "\u2581peoples",
                -8.803032875061035
            ],
            [
                "\u4e09",
                -8.397842407226562
            ],
            [
                "\u2581\u7136\u800c",
                -8.447196960449219
            ],
            [
                "\u2581establish",
                -8.783853530883789
            ],
            [
                "\u8bbe\u7acb",
                -8.407984733581543
            ],
            [
                "\u2019",
                -13.590737342834473
            ],
            [
                "\u2581UNDP",
                -8.785270690917969
            ],
            [
                "\u2581regular",
                -8.771768569946289
            ],
            [
                "\u63a8\u52a8",
                -8.416891098022461
            ],
            [
                "\u2581biennium",
                -8.765466690063477
            ],
            [
                "\u9488\u5bf9",
                -8.400596618652344
            ],
            [
                "\u7684\u6d3b\u52a8",
                -8.545207023620605
            ],
            [
                "\u2581found",
                -8.71960735321045
            ],
            [
                "\u2581promotion",
                -8.782222747802734
            ],
            [
                "\u540c\u610f",
                -8.42101764678955
            ],
            [
                "\u76d1\u6d4b",
                -8.39248275756836
            ],
            [
                "\u2581\u5b83",
                -8.543137550354004
            ],
            [
                "\u6279\u51c6",
                -8.446911811828613
            ],
            [
                "\u2581para",
                -8.787983894348145
            ],
            [
                "\u2581Permanent",
                -8.766213417053223
            ],
            [
                "\u2581business",
                -8.745919227600098
            ],
            [
                "\u4f5c",
                -8.45433235168457
            ],
            [
                "\u2581crime",
                -8.778152465820312
            ],
            [
                "\u624b",
                -8.500114440917969
            ],
            [
                "\u2581tell",
                -8.646734237670898
            ],
            [
                "\u2581Information",
                -8.782788276672363
            ],
            [
                "\u6295\u8d44",
                -8.463737487792969
            ],
            [
                "\u4fdd\u8bc1",
                -8.468276977539062
            ],
            [
                "\u6539\u9769",
                -8.432106018066406
            ],
            [
                "\u2581girls",
                -8.762784004211426
            ],
            [
                "\u53d1\u751f",
                -8.431211471557617
            ],
            [
                ")(",
                -8.702533721923828
            ],
            [
                "\u7f8e\u56fd",
                -8.372254371643066
            ],
            [
                "\u2581planning",
                -8.78348159790039
            ],
            [
                "\u258112.",
                -8.940749168395996
            ],
            [
                "\u2581practice",
                -8.784783363342285
            ],
            [
                "\u258125",
                -8.7285795211792
            ],
            [
                "\u2581doing",
                -8.596415519714355
            ],
            [
                "\u2581acts",
                -8.805048942565918
            ],
            [
                "\u5904",
                -8.487133979797363
            ],
            [
                "term",
                -8.795266151428223
            ],
            [
                "\u2581main",
                -8.793415069580078
            ],
            [
                "\u7684\u6240\u6709",
                -8.547850608825684
            ],
            [
                "\u2581cultural",
                -8.810423851013184
            ],
            [
                "\u2581didn",
                -8.630699157714844
            ],
            [
                "\u2581employment",
                -8.8062105178833
            ],
            [
                "\u2581focus",
                -8.800429344177246
            ],
            [
                "\u2581priority",
                -8.805697441101074
            ],
            [
                "\u2581One",
                -8.736769676208496
            ],
            [
                "\u8054\u5408",
                -8.482550621032715
            ],
            [
                "\u2581While",
                -8.807844161987305
            ],
            [
                "\u2581needed",
                -8.798672676086426
            ],
            [
                "\u2581re",
                -9.011527061462402
            ],
            [
                "\u8d77",
                -8.464862823486328
            ],
            [
                "\u2581\u90a3",
                -8.47543716430664
            ],
            [
                "\u7684\u60c5\u51b5\u4e0b",
                -8.517682075500488
            ],
            [
                "\u5229",
                -8.529218673706055
            ],
            [
                "\u2581find",
                -8.684686660766602
            ],
            [
                "\u9650\u5236",
                -8.48420524597168
            ],
            [
                "\u63d0\u4f9b\u4e86",
                -8.51183032989502
            ],
            [
                "\u2581administrative",
                -8.822668075561523
            ],
            [
                "\u2581Don",
                -8.63640022277832
            ],
            [
                "\u2581research",
                -8.81217098236084
            ],
            [
                "\u5c14",
                -8.637786865234375
            ],
            [
                "\u2581course",
                -8.744634628295898
            ],
            [
                "\u2581Commissioner",
                -8.816238403320312
            ],
            [
                "\u5baa\u6cd5",
                -8.485276222229004
            ],
            [
                "\u2581Okay",
                -8.540543556213379
            ],
            [
                "\u2581China",
                -8.777259826660156
            ],
            [
                "\u2581Millennium",
                -8.813665390014648
            ],
            [
                "\u7981\u6b62",
                -8.513031005859375
            ],
            [
                "\u2581\u4e3a",
                -8.981171607971191
            ],
            [
                "\u2581problem",
                -8.787640571594238
            ],
            [
                "\u2581growth",
                -8.82783031463623
            ],
            [
                "\u5728\u5176",
                -8.578817367553711
            ],
            [
                "\u258123",
                -8.761807441711426
            ],
            [
                "\u2581procedure",
                -8.808304786682129
            ],
            [
                "\u2581funding",
                -8.822261810302734
            ],
            [
                "\u2581violations",
                -8.833600044250488
            ],
            [
                "\u6709\u6548",
                -8.393664360046387
            ],
            [
                "\u5236\u8ba2",
                -8.470098495483398
            ],
            [
                "\u2581recommended",
                -8.829850196838379
            ],
            [
                "\u4f60\u7684",
                -8.45899772644043
            ],
            [
                "2010",
                -8.477346420288086
            ],
            [
                "\u7f51\u7edc",
                -8.48922348022461
            ],
            [
                "\u2581serious",
                -8.81439208984375
            ],
            [
                "\u2581third",
                -8.815295219421387
            ],
            [
                "\u2581Democratic",
                -8.76157283782959
            ],
            [
                "\u2581great",
                -8.734026908874512
            ],
            [
                "\u63d0\u51fa\u7684",
                -8.61367130279541
            ],
            [
                "\u2581sexual",
                -8.847036361694336
            ],
            [
                "M",
                -9.004659652709961
            ],
            [
                "\u2581mean",
                -8.643293380737305
            ],
            [
                "\u2581partners",
                -8.841790199279785
            ],
            [
                "\u2581prevent",
                -8.833900451660156
            ],
            [
                "\u4e2a\u4eba",
                -8.446069717407227
            ],
            [
                "\u2581yet",
                -8.796504974365234
            ],
            [
                "\u4e0d\u540c",
                -8.477372169494629
            ],
            [
                "\u5361",
                -8.514371871948242
            ],
            [
                "\u2581Panel",
                -8.850953102111816
            ],
            [
                "\u2581operational",
                -8.847164154052734
            ],
            [
                "\u2581\u8bf7",
                -8.558211326599121
            ],
            [
                "\u2581strategies",
                -8.844027519226074
            ],
            [
                "\u2581agreements",
                -8.857773780822754
            ],
            [
                "\u2581treaty",
                -8.831446647644043
            ],
            [
                "\u2581clear",
                -8.807628631591797
            ],
            [
                "\u2581Director",
                -8.832633972167969
            ],
            [
                "\u9009\u4e3e",
                -8.446216583251953
            ],
            [
                "\u4f60\u4eec",
                -8.503040313720703
            ],
            [
                "\u4eba\u53e3",
                -8.490869522094727
            ],
            [
                "\u8fdb\u7a0b",
                -8.499005317687988
            ],
            [
                "\u2581around",
                -8.768633842468262
            ],
            [
                "\u2581discussion",
                -8.834105491638184
            ],
            [
                "\u25812009",
                -9.151374816894531
            ],
            [
                "l",
                -9.145350456237793
            ],
            [
                "\u4e13\u5bb6",
                -8.523582458496094
            ],
            [
                "\u2581Treaty",
                -8.847359657287598
            ],
            [
                "\u2581\u6211\u5011",
                -8.573625564575195
            ],
            [
                "\u76f4\u63a5",
                -8.525578498840332
            ],
            [
                "40",
                -8.689981460571289
            ],
            [
                "[",
                -8.550742149353027
            ],
            [
                "\u2581treatment",
                -8.849574089050293
            ],
            [
                "\u258124",
                -8.790061950683594
            ],
            [
                "\u2581instruments",
                -8.858251571655273
            ],
            [
                "\u73b0\u5728",
                -8.501126289367676
            ],
            [
                "\u8868\u660e",
                -8.517895698547363
            ],
            [
                ";(",
                -8.61047649383545
            ],
            [
                "\u2581forces",
                -8.867778778076172
            ],
            [
                "\u8bba\u575b",
                -8.528453826904297
            ],
            [
                "\u2581reduction",
                -8.853692054748535
            ],
            [
                "\u2581statements",
                -8.868279457092285
            ],
            [
                "\u2581annual",
                -8.865025520324707
            ],
            [
                "\u25811999",
                -9.116483688354492
            ],
            [
                "\u6761\u4ef6",
                -8.485197067260742
            ],
            [
                "\u2581promoting",
                -8.867615699768066
            ],
            [
                "\u2581achieve",
                -8.862439155578613
            ],
            [
                "\u4e86\u89e3",
                -8.519112586975098
            ],
            [
                "\u533a",
                -8.572299003601074
            ],
            [
                "\u2581Covenant",
                -8.861854553222656
            ],
            [
                "\u2581\u5c31",
                -8.749395370483398
            ],
            [
                "\u2581however",
                -8.865888595581055
            ],
            [
                "\u770b",
                -8.512561798095703
            ],
            [
                "\u2581responsible",
                -8.868617057800293
            ],
            [
                "\u4f0a\u62c9\u514b",
                -8.504109382629395
            ],
            [
                "\u2581Chairman",
                -8.862208366394043
            ],
            [
                "\u2581Centre",
                -8.853263854980469
            ],
            [
                "\u2581let",
                -8.716434478759766
            ],
            [
                "\u2581office",
                -8.849202156066895
            ],
            [
                "\u5206\u6790",
                -8.478907585144043
            ],
            [
                "\u9020\u6210",
                -8.490357398986816
            ],
            [
                "\u897f",
                -8.555135726928711
            ],
            [
                "\u8bb8\u591a",
                -8.491701126098633
            ],
            [
                "\u7684\u89c4\u5b9a",
                -8.62214183807373
            ],
            [
                "\u2581\u6709",
                -8.824747085571289
            ],
            [
                "\u529e\u516c\u5ba4",
                -8.55703067779541
            ],
            [
                "\u5408\u540c",
                -8.54010009765625
            ],
            [
                "\u2581involved",
                -8.87229061126709
            ],
            [
                "\u4e4b\u95f4\u7684",
                -8.63141918182373
            ],
            [
                "\u2581committed",
                -8.869178771972656
            ],
            [
                "G",
                -8.971488952636719
            ],
            [
                "\u4f5c\u7528",
                -8.580474853515625
            ],
            [
                "\u4efb\u52a1",
                -8.470222473144531
            ],
            [
                "\u5c31\u662f",
                -8.514780044555664
            ],
            [
                "\u2581past",
                -8.863688468933105
            ],
            [
                "\u2581equipment",
                -8.87664794921875
            ],
            [
                "\u6253",
                -8.513931274414062
            ],
            [
                "\u2581Division",
                -8.865143775939941
            ],
            [
                "\u2581light",
                -8.845819473266602
            ],
            [
                "\u2581implementing",
                -8.882076263427734
            ],
            [
                "\u5b8c\u5168",
                -8.531506538391113
            ],
            [
                "\u2581section",
                -8.861778259277344
            ],
            [
                "\u7ecf",
                -8.54481315612793
            ],
            [
                "\u2581list",
                -8.853049278259277
            ],
            [
                "\u2581::",
                -8.91342830657959
            ],
            [
                "\u2581laws",
                -8.91898250579834
            ],
            [
                "\u2581production",
                -8.878096580505371
            ],
            [
                "\u2581become",
                -8.835917472839355
            ],
            [
                "\u4ecd\u7136",
                -8.53095817565918
            ],
            [
                "\u2581notes",
                -8.895604133605957
            ],
            [
                "\u8d70",
                -8.517054557800293
            ],
            [
                "\u2581objectives",
                -8.898391723632812
            ],
            [
                "\u2581organized",
                -8.882342338562012
            ],
            [
                "\u2581property",
                -8.883176803588867
            ],
            [
                "\u6d88\u9664",
                -8.548934936523438
            ],
            [
                "\u5c65\u884c",
                -8.545629501342773
            ],
            [
                "\u8b66\u5bdf",
                -8.50197696685791
            ],
            [
                "\u2581dated",
                -8.877915382385254
            ],
            [
                "\u2581Tribunal",
                -8.883420944213867
            ],
            [
                "\u258113.",
                -9.019485473632812
            ],
            [
                "\u8d38\u6613",
                -8.531959533691406
            ],
            [
                "\u5b89\u7406\u4f1a",
                -8.532379150390625
            ],
            [
                "level",
                -8.878951072692871
            ],
            [
                "\u963f",
                -8.595043182373047
            ],
            [
                "\u2581performance",
                -8.88896369934082
            ],
            [
                "\u9632\u6b62",
                -8.55020809173584
            ],
            [
                "\u89c4\u5219",
                -8.57027816772461
            ],
            [
                "\u2581home",
                -8.74555492401123
            ],
            [
                "\u4e0a\u8ff0",
                -8.51970100402832
            ],
            [
                "\u2581awareness",
                -8.90401840209961
            ],
            [
                "\u2581aimed",
                -8.900720596313477
            ],
            [
                "\u7acb\u6cd5",
                -8.527144432067871
            ],
            [
                "\u6b21",
                -8.524517059326172
            ],
            [
                "\u2581rate",
                -8.873503684997559
            ],
            [
                "\u2581Where",
                -8.636761665344238
            ],
            [
                "\u56fd\u9645\u793e\u4f1a",
                -8.513221740722656
            ],
            [
                "\u2581Minister",
                -8.854087829589844
            ],
            [
                "\u2581date",
                -8.866049766540527
            ],
            [
                "\u6211\u5011",
                -8.524629592895508
            ],
            [
                "\u2581steps",
                -8.89570140838623
            ],
            [
                "\u51b2\u7a81",
                -8.586640357971191
            ],
            [
                "\u4f46\u662f",
                -8.543603897094727
            ],
            [
                "\u2581position",
                -8.876862525939941
            ],
            [
                "\u201d,",
                -9.536602020263672
            ],
            [
                "\u6539\u8fdb",
                -8.553000450134277
            ],
            [
                "\u53d1",
                -8.633322715759277
            ],
            [
                "\u6b63",
                -8.526716232299805
            ],
            [
                "\u2581adequate",
                -8.902180671691895
            ],
            [
                "\u2581open",
                -8.86185073852539
            ],
            [
                "\u2581\u7531\u4e8e",
                -8.633533477783203
            ],
            [
                "\u2581certain",
                -8.89953899383545
            ],
            [
                "50",
                -8.783002853393555
            ],
            [
                "\u2581pursuant",
                -8.906402587890625
            ],
            [
                "\u8349\u6848",
                -8.54850959777832
            ],
            [
                "\u53d6\u5f97",
                -8.58015251159668
            ],
            [
                "\u2581Asia",
                -8.90626335144043
            ],
            [
                "\u5c3c",
                -8.7382173538208
            ],
            [
                "\u2581facilitate",
                -8.893576622009277
            ],
            [
                "\u2581forms",
                -8.908452987670898
            ],
            [
                "\u2581believe",
                -8.791879653930664
            ],
            [
                "\u2581supported",
                -8.912020683288574
            ],
            [
                "\u2581previous",
                -8.915565490722656
            ],
            [
                "\u2581individual",
                -8.905497550964355
            ],
            [
                "\u2581living",
                -8.889077186584473
            ],
            [
                "\u2581Other",
                -8.863024711608887
            ],
            [
                "\u6062\u590d",
                -8.593060493469238
            ],
            [
                "\u2581why",
                -8.791632652282715
            ],
            [
                "\u8bf7\u6c42",
                -8.552106857299805
            ],
            [
                "\u2581official",
                -8.900045394897461
            ],
            [
                "\u52a0\u5165",
                -8.631206512451172
            ],
            [
                "\u2581Central",
                -8.895843505859375
            ],
            [
                "\u2581approved",
                -8.916251182556152
            ],
            [
                "\u2581d",
                -9.084856986999512
            ],
            [
                "\u7684\u4e00\u4e2a",
                -8.668229103088379
            ],
            [
                "\u7eb3\u5165",
                -8.599984169006348
            ],
            [
                "\u2581free",
                -8.896015167236328
            ],
            [
                "\u2581communities",
                -8.915730476379395
            ],
            [
                "\u2581M",
                -9.192273139953613
            ],
            [
                "\u2581knowledge",
                -8.90964412689209
            ],
            [
                "\u2581author",
                -8.920964241027832
            ],
            [
                "\u258114.",
                -9.049846649169922
            ],
            [
                "\u2581joint",
                -8.92806625366211
            ],
            [
                "\u2581An",
                -8.91023063659668
            ],
            [
                "\u2581God",
                -8.669578552246094
            ],
            [
                "te",
                -9.0177583694458
            ],
            [
                "\u25812010",
                -9.155230522155762
            ],
            [
                "\u2581plans",
                -8.932750701904297
            ],
            [
                "\u2581school",
                -8.85977554321289
            ],
            [
                "\u2581V",
                -9.1394624710083
            ],
            [
                "\u2581posts",
                -8.941472053527832
            ],
            [
                "\u6536\u5165",
                -8.588898658752441
            ],
            [
                "\u2581investment",
                -8.91797161102295
            ],
            [
                "\u2581form",
                -9.016475677490234
            ],
            [
                "\u81ea\u7531",
                -8.581409454345703
            ],
            [
                "\u2581early",
                -8.918035507202148
            ],
            [
                "\u2581energy",
                -8.929460525512695
            ],
            [
                "\u77e5\u9053",
                -8.519357681274414
            ],
            [
                "u",
                -9.383367538452148
            ],
            [
                "\u2581purpose",
                -8.919086456298828
            ],
            [
                "\u2581able",
                -8.914692878723145
            ],
            [
                "\u2581days",
                -8.892189025878906
            ],
            [
                "\u6269\u5927",
                -8.57761287689209
            ],
            [
                "\u2581Criminal",
                -8.929966926574707
            ],
            [
                "tergovernmental",
                -8.972249031066895
            ],
            [
                "\u258128",
                -8.860346794128418
            ],
            [
                "\u9a6c",
                -8.654505729675293
            ],
            [
                "\u2581strategic",
                -8.944878578186035
            ],
            [
                "\u2581proposals",
                -8.953803062438965
            ],
            [
                "\u53d1\u5c55\u4e2d\u56fd\u5bb6",
                -8.522584915161133
            ],
            [
                "\u2014\u2014",
                -8.592940330505371
            ],
            [
                "\u2581interest",
                -8.916740417480469
            ],
            [
                "\u2581enhance",
                -8.944971084594727
            ],
            [
                "\u4e8b",
                -8.574895858764648
            ],
            [
                "\u4fdd\u969c",
                -8.606268882751465
            ],
            [
                "\u2581assist",
                -8.929377555847168
            ],
            [
                "\u2581income",
                -8.933488845825195
            ],
            [
                "\u53f8\u6cd5",
                -8.6077241897583
            ],
            [
                "\u2581Charter",
                -8.94744873046875
            ],
            [
                "\u2581essential",
                -8.952752113342285
            ],
            [
                "\u2581understanding",
                -8.945780754089355
            ],
            [
                "\u4e3e\u884c\u7684",
                -8.683393478393555
            ],
            [
                "\u8fdb\u884c\u4e86",
                -8.648290634155273
            ],
            [
                "\u2581greater",
                -8.951179504394531
            ],
            [
                "\u63a7\u5236",
                -8.600041389465332
            ],
            [
                "\u5021\u8bae",
                -8.609375
            ],
            [
                "\u2581recommendation",
                -8.93246078491211
            ],
            [
                "\u2581Agenda",
                -8.953958511352539
            ],
            [
                "\u975e\u653f\u5e9c\u7ec4\u7ec7",
                -8.51550006866455
            ],
            [
                "\u2581issued",
                -8.94860553741455
            ],
            [
                "\u2581\u5728\u8fd9\u65b9\u9762",
                -8.641213417053223
            ],
            [
                "\u2581H",
                -9.308486938476562
            ],
            [
                "\u2581self",
                -8.937047958374023
            ],
            [
                "\u4e1a\u52a1",
                -8.591500282287598
            ],
            [
                "\u9002\u5f53",
                -8.511768341064453
            ],
            [
                "\u2581Trade",
                -8.94841194152832
            ],
            [
                "\u6765\u81ea",
                -8.578412055969238
            ],
            [
                "\u975e\u5e38",
                -8.571548461914062
            ],
            [
                "\u2581communication",
                -8.9535551071167
            ],
            [
                "\u6b22\u8fce",
                -8.562858581542969
            ],
            [
                "\u2581analysis",
                -8.9504976272583
            ],
            [
                "\u2581principle",
                -8.946674346923828
            ],
            [
                "\u2581wish",
                -8.910454750061035
            ],
            [
                "\u5fc3",
                -8.650686264038086
            ],
            [
                "to",
                -9.059171676635742
            ],
            [
                "\u4e0b\u5217",
                -8.5929536819458
            ],
            [
                "\u2581implemented",
                -8.955119132995605
            ],
            [
                "\u2581age",
                -8.942651748657227
            ],
            [
                "\u8c08\u5224",
                -8.600214004516602
            ],
            [
                "\u2581ensuring",
                -8.959486961364746
            ],
            [
                "\u9009\u62e9",
                -8.628193855285645
            ],
            [
                "\u2581offices",
                -8.977452278137207
            ],
            [
                "\u2581Bank",
                -8.953521728515625
            ],
            [
                "\u2581Plan",
                -8.952798843383789
            ],
            [
                "\u2581arrangements",
                -8.961719512939453
            ],
            [
                "\u2581Review",
                -8.96547794342041
            ],
            [
                "\u6211\u7684",
                -8.60544490814209
            ],
            [
                "\u5f53\u5c40",
                -8.612345695495605
            ],
            [
                "\u2581carried",
                -8.973430633544922
            ],
            [
                "\u4fdd\u7559",
                -8.615870475769043
            ],
            [
                "\u300b(",
                -8.689656257629395
            ],
            [
                "\u2581T",
                -9.272940635681152
            ],
            [
                "\u53ea",
                -8.554349899291992
            ],
            [
                "\u957f\u671f",
                -8.604348182678223
            ],
            [
                "\u2581having",
                -8.930842399597168
            ],
            [
                "\u2581expected",
                -8.975654602050781
            ],
            [
                "\u2581experts",
                -8.969806671142578
            ],
            [
                "\u2581evaluation",
                -8.955789566040039
            ],
            [
                "\u62e5\u6709",
                -8.635093688964844
            ],
            [
                "1998",
                -8.617334365844727
            ],
            [
                "\u2581equal",
                -8.957685470581055
            ],
            [
                "\u2581Implementation",
                -8.979339599609375
            ],
            [
                "T",
                -9.165421485900879
            ],
            [
                "\u2581Kingdom",
                -8.932501792907715
            ],
            [
                "\u2581potential",
                -8.968743324279785
            ],
            [
                "\u2581undertaken",
                -8.98431396484375
            ],
            [
                "\u2581line",
                -8.928833961486816
            ],
            [
                "\u7efc\u5408",
                -8.695003509521484
            ],
            [
                "\u2581Russian",
                -8.922048568725586
            ],
            [
                "\u2581large",
                -8.977215766906738
            ],
            [
                "\u6cd5\u5b98",
                -8.648075103759766
            ],
            [
                "\u5145\u5206",
                -8.592945098876953
            ],
            [
                "\u793e\u533a",
                -8.604372024536133
            ],
            [
                "\u65b9",
                -8.70172119140625
            ],
            [
                "\u2581foreign",
                -8.979625701904297
            ],
            [
                "\u258115.",
                -9.093734741210938
            ],
            [
                "\u2581text",
                -8.964632987976074
            ],
            [
                "\u9075\u5b88",
                -8.631399154663086
            ],
            [
                "\u2581UN",
                -8.989078521728516
            ],
            [
                "\u2581protect",
                -8.960769653320312
            ],
            [
                "\u8868",
                -8.628543853759766
            ],
            [
                "en",
                -9.445544242858887
            ],
            [
                "\u2581stated",
                -8.986403465270996
            ],
            [
                "\u6ce8\u610f",
                -8.674102783203125
            ],
            [
                "\u6c11\u4e3b",
                -8.722708702087402
            ],
            [
                "\u7ed3\u679c",
                -8.585086822509766
            ],
            [
                "\u2581goals",
                -8.997435569763184
            ],
            [
                "\u2581Geneva",
                -8.986921310424805
            ],
            [
                "\u2581His",
                -8.943778991699219
            ],
            [
                "\u5185\u5bb9",
                -8.640115737915039
            ],
            [
                "\u534f\u8bae",
                -8.63637638092041
            ],
            [
                "\u2581contribute",
                -8.98900318145752
            ],
            [
                "\u2581prepared",
                -8.990119934082031
            ],
            [
                "\u2581affected",
                -8.988221168518066
            ],
            [
                "\u2581guidelines",
                -8.99001407623291
            ],
            [
                "\u5a01\u80c1",
                -8.683496475219727
            ],
            [
                "\u2581basic",
                -8.977535247802734
            ],
            [
                "\u2581Federation",
                -8.951401710510254
            ],
            [
                "\u52a0",
                -8.736928939819336
            ],
            [
                "\u72af\u7f6a",
                -8.691133499145508
            ],
            [
                "\u2581Summit",
                -8.9983491897583
            ],
            [
                "\u2581opportunities",
                -8.991637229919434
            ],
            [
                "\u2581K",
                -9.421913146972656
            ],
            [
                "\u258127",
                -8.919931411743164
            ],
            [
                "\u2581until",
                -8.956625938415527
            ],
            [
                "\u786e\u8ba4",
                -8.631168365478516
            ],
            [
                "\u2581study",
                -9.003044128417969
            ],
            [
                "\u6700\u8fd1",
                -8.606510162353516
            ],
            [
                "\u2581Global",
                -8.987919807434082
            ],
            [
                "\u901a\u77e5",
                -8.67074966430664
            ],
            [
                "\u2581York",
                -8.990697860717773
            ],
            [
                "\u6210\u5458\u56fd",
                -8.667817115783691
            ],
            [
                "\u2581fundamental",
                -9.008254051208496
            ],
            [
                "\u7684\u65b9\u5f0f",
                -8.768770217895508
            ],
            [
                "\u7f3a\u4e4f",
                -8.660941123962402
            ],
            [
                "\u2581financing",
                -9.006072998046875
            ],
            [
                "\u2581making",
                -8.966035842895508
            ],
            [
                "\u2581conduct",
                -8.993915557861328
            ],
            [
                "\u53f7\u51b3\u5b9a",
                -8.658641815185547
            ],
            [
                "\u2581months",
                -8.99321460723877
            ],
            [
                "\u2581Israeli",
                -9.00599479675293
            ],
            [
                "\u2581others",
                -9.071391105651855
            ],
            [
                "\u5b58\u5728",
                -8.63895034790039
            ],
            [
                "\u534f\u4f1a",
                -8.677414894104004
            ],
            [
                "\u4e00\u6837",
                -8.689214706420898
            ],
            [
                "\u2581proposal",
                -8.99457836151123
            ],
            [
                "\u7684\u662f",
                -8.876402854919434
            ],
            [
                "\u2581informed",
                -9.004542350769043
            ],
            [
                "\u2581market",
                -8.999611854553223
            ],
            [
                "\u2581far",
                -8.967902183532715
            ],
            [
                "\u2581nature",
                -9.002904891967773
            ],
            [
                "\u2581facilities",
                -9.007829666137695
            ],
            [
                "\u258126",
                -8.908580780029297
            ],
            [
                "H",
                -9.206655502319336
            ],
            [
                "\u2581aspects",
                -9.011425971984863
            ],
            [
                "\u4f86",
                -8.630288124084473
            ],
            [
                "\u2581vote",
                -9.0026273727417
            ],
            [
                "\u2581today",
                -8.944915771484375
            ],
            [
                "\u2581fifty",
                -9.017631530761719
            ],
            [
                "\u9636\u6bb5",
                -8.691338539123535
            ],
            [
                "\u2581processes",
                -9.009568214416504
            ],
            [
                "\u2581Management",
                -9.004077911376953
            ],
            [
                "\u884c",
                -8.689898490905762
            ],
            [
                "\u4e07\u7f8e\u5143",
                -8.676043510437012
            ],
            [
                "\u2581building",
                -9.01134204864502
            ],
            [
                "\u2581delegations",
                -9.029472351074219
            ],
            [
                "\u751f",
                -8.734609603881836
            ],
            [
                "\u6cd5\u5ead",
                -8.644210815429688
            ],
            [
                "\u2581rural",
                -9.0228853225708
            ],
            [
                "\u2581body",
                -8.970839500427246
            ],
            [
                "\u4f01\u4e1a",
                -8.668917655944824
            ],
            [
                "\u4e8b\u52a1",
                -8.798066139221191
            ],
            [
                "\u2581Justice",
                -9.012069702148438
            ],
            [
                "\u8fbe",
                -8.758010864257812
            ],
            [
                "\u2581mechanism",
                -9.012138366699219
            ],
            [
                "\u2581bring",
                -8.961003303527832
            ],
            [
                "\u2581R",
                -9.223176956176758
            ],
            [
                "\u9898\u4e3a",
                -8.696052551269531
            ],
            [
                "\u2581exchange",
                -9.019073486328125
            ],
            [
                "\u2581Cooperation",
                -9.009052276611328
            ],
            [
                "\u2581money",
                -8.933014869689941
            ],
            [
                "\u5ba3\u5e03",
                -8.691513061523438
            ],
            [
                "\u5f00",
                -8.726755142211914
            ],
            [
                "\u6848\u4ef6",
                -8.662956237792969
            ],
            [
                "\u4e49\u52a1",
                -8.648387908935547
            ],
            [
                "\u2581point",
                -8.976286888122559
            ],
            [
                "\u2581climate",
                -9.02796745300293
            ],
            [
                "\u8282",
                -8.70305347442627
            ],
            [
                "\u66f4\u52a0",
                -8.694446563720703
            ],
            [
                "\u258116.",
                -9.16652774810791
            ],
            [
                "\u2581natural",
                -9.025728225708008
            ],
            [
                "\u673a\u4f1a",
                -8.64400863647461
            ],
            [
                "\u2581Forum",
                -9.031929969787598
            ],
            [
                "\u2581independent",
                -9.021364212036133
            ],
            [
                "\u2581limited",
                -9.027390480041504
            ],
            [
                "\u2581individuals",
                -9.041260719299316
            ],
            [
                "\u5c40",
                -8.775347709655762
            ],
            [
                "\u2581During",
                -9.026994705200195
            ],
            [
                "\u5404\u9879",
                -8.638440132141113
            ],
            [
                "\u2581war",
                -8.988190650939941
            ],
            [
                "\u7684\u7b2c",
                -8.856304168701172
            ],
            [
                "AC",
                -9.474043846130371
            ],
            [
                "\u6210",
                -8.749466896057129
            ],
            [
                "\u2581manner",
                -9.01827335357666
            ],
            [
                "\u5bfc\u81f4",
                -8.69155216217041
            ],
            [
                "\u9002\u7528",
                -8.687690734863281
            ],
            [
                "\u2581quality",
                -9.03018569946289
            ],
            [
                "\u2581six",
                -9.009285926818848
            ],
            [
                "\u2581\u4e00",
                -8.83073616027832
            ],
            [
                "\u2581whole",
                -8.984540939331055
            ],
            [
                "\u5ba3\u8a00",
                -8.760245323181152
            ],
            [
                "\u2581recommends",
                -9.047847747802734
            ],
            [
                "\u7b26\u5408",
                -8.691088676452637
            ],
            [
                "\u5176\u4e2d\u5305\u62ec",
                -8.703660011291504
            ],
            [
                "\u25811998",
                -9.270696640014648
            ],
            [
                "\u4e00\u79cd",
                -8.648974418640137
            ],
            [
                "\u2581evidence",
                -9.029779434204102
            ],
            [
                "\u6761\u7b2c",
                -8.713311195373535
            ],
            [
                "\u96be\u6c11",
                -8.711660385131836
            ],
            [
                "\u2581\u8fd9\u662f",
                -8.750658988952637
            ],
            [
                "\u5173\u7cfb",
                -8.683046340942383
            ],
            [
                "\u2581leave",
                -8.953311920166016
            ],
            [
                "\u5730\u65b9",
                -8.624549865722656
            ],
            [
                "\u2581commitments",
                -9.054716110229492
            ],
            [
                "\u2581Meeting",
                -9.041259765625
            ],
            [
                "AIDS",
                -9.02899169921875
            ],
            [
                "\u2581currently",
                -9.040691375732422
            ],
            [
                "\u2581opportunity",
                -9.033234596252441
            ],
            [
                "\u72b6\u51b5",
                -8.68260383605957
            ],
            [
                "\u91cd\u8981",
                -8.652719497680664
            ],
            [
                "\u4e07",
                -8.724841117858887
            ],
            [
                "\u2581thus",
                -9.04572868347168
            ],
            [
                "\u2581negotiations",
                -9.056466102600098
            ],
            [
                "\u2581always",
                -8.957555770874023
            ],
            [
                "\u2581Now",
                -8.899778366088867
            ],
            [
                "K",
                -9.269442558288574
            ],
            [
                "\u2581authority",
                -9.054733276367188
            ],
            [
                ".2",
                -9.248689651489258
            ],
            [
                "\u2581Non",
                -9.05601978302002
            ],
            [
                "\u2581often",
                -9.046454429626465
            ],
            [
                "\u2581\u662f\u7684",
                -8.735353469848633
            ],
            [
                "\u2581love",
                -8.896492958068848
            ],
            [
                "\u4ece\u800c",
                -8.726646423339844
            ],
            [
                "\u4f9b",
                -8.717991828918457
            ],
            [
                "\u2581labour",
                -9.05760383605957
            ],
            [
                "\u2581When",
                -8.966642379760742
            ],
            [
                "\u827e\u6ecb\u75c5",
                -8.733729362487793
            ],
            [
                "\u751f\u4ea7",
                -8.714470863342285
            ],
            [
                "\u843d\u5b9e",
                -8.701223373413086
            ],
            [
                "\u91cd\u65b0",
                -8.734063148498535
            ],
            [
                "\u2581L",
                -9.471928596496582
            ],
            [
                "\u4e00\u76f4",
                -8.702357292175293
            ],
            [
                "\u5df4",
                -8.847613334655762
            ],
            [
                "\u8d23\u4efb",
                -8.6372709274292
            ],
            [
                "\u2581questions",
                -9.066206932067871
            ],
            [
                "\u547c\u5401",
                -8.676460266113281
            ],
            [
                "\u2581workers",
                -9.05952262878418
            ],
            [
                "\u7ed9\u4e88",
                -8.720911026000977
            ],
            [
                "\u2581play",
                -8.994909286499023
            ],
            [
                "\u2581\u8be5",
                -8.77518081665039
            ],
            [
                "\u2581Support",
                -9.053375244140625
            ],
            [
                "\u2581act",
                -9.052489280700684
            ],
            [
                "\u2581increasing",
                -9.071236610412598
            ],
            [
                "\u2581benefits",
                -9.0706148147583
            ],
            [
                "\u7684\u4efb\u4f55",
                -8.857154846191406
            ],
            [
                "\u5e76\u5728",
                -8.83217716217041
            ],
            [
                "\u2581effect",
                -9.066751480102539
            ],
            [
                "\u91cd\u7533",
                -8.678504943847656
            ],
            [
                "\u2581recognized",
                -9.073348045349121
            ],
            [
                "\u6b7b",
                -8.716062545776367
            ],
            [
                "\u529e\u4e8b\u5904",
                -8.799357414245605
            ],
            [
                "k",
                -9.415660858154297
            ],
            [
                "\u7f14\u7ea6\u65b9",
                -8.663141250610352
            ],
            [
                "\u5b9e\u884c",
                -8.730683326721191
            ],
            [
                "\u671f",
                -8.762723922729492
            ],
            [
                "\u4e24\u4e2a",
                -8.697714805603027
            ],
            [
                "\u5b9e\u9645",
                -8.726606369018555
            ],
            [
                "\u2581contribution",
                -9.06801986694336
            ],
            [
                "\u258129",
                -8.997603416442871
            ],
            [
                "\u90e8\u961f",
                -8.724428176879883
            ],
            [
                "\u67d0\u4e9b",
                -8.691774368286133
            ],
            [
                "\u5e02\u573a",
                -8.743178367614746
            ],
            [
                "\u2581concerns",
                -9.095133781433105
            ],
            [
                "an",
                -9.634869575500488
            ],
            [
                "\u2581transfer",
                -9.051395416259766
            ],
            [
                "\u975e\u6cd5",
                -8.748440742492676
            ],
            [
                "\u8fdd\u53cd",
                -8.747906684875488
            ],
            [
                "\u6587\u5316",
                -8.692285537719727
            ],
            [
                "\u72ec\u7acb",
                -8.738138198852539
            ],
            [
                "\u2581officials",
                -9.07783317565918
            ],
            [
                "\u2581Is",
                -9.408610343933105
            ],
            [
                "\u2581functions",
                -9.08025074005127
            ],
            [
                "\u2581alia",
                -9.081803321838379
            ],
            [
                "\u6050\u6016\u4e3b\u4e49",
                -8.767257690429688
            ],
            [
                "\u2581referred",
                -9.078868865966797
            ],
            [
                "\u2581Congo",
                -9.016205787658691
            ],
            [
                "\u2581entities",
                -9.07766056060791
            ],
            [
                "\u2581\u597d",
                -8.804290771484375
            ],
            [
                "\u5173\u6ce8",
                -8.745899200439453
            ],
            [
                "\u2581submit",
                -9.067854881286621
            ],
            [
                "\u2581forward",
                -9.068535804748535
            ],
            [
                "\u258117.",
                -9.202507019042969
            ],
            [
                "\u6216\u8005",
                -8.718528747558594
            ],
            [
                "\u2581name",
                -8.897506713867188
            ],
            [
                "\u7279\u522b\u62a5\u544a\u5458",
                -8.71545124053955
            ],
            [
                "\u2581Crime",
                -9.063457489013672
            ],
            [
                "\u2581remain",
                -9.062021255493164
            ],
            [
                "\u5934",
                -8.789045333862305
            ],
            [
                "\u2581close",
                -9.036006927490234
            ],
            [
                "\u2581thing",
                -8.917353630065918
            ],
            [
                "\u4fdd\u6301",
                -8.73708438873291
            ],
            [
                "\u2581away",
                -8.952827453613281
            ],
            [
                "\u2581\u4e3b\u5e2d",
                -8.840483665466309
            ],
            [
                "\u2581young",
                -9.04262638092041
            ],
            [
                "2011",
                -8.733865737915039
            ],
            [
                "\u2581letter",
                -9.053446769714355
            ],
            [
                "\u2581Agreement",
                -9.082736015319824
            ],
            [
                "\u4eab\u6709",
                -8.756219863891602
            ],
            [
                "\u2581crimes",
                -9.106623649597168
            ],
            [
                "\u2581Under",
                -9.087142944335938
            ],
            [
                "\u2581III",
                -9.06702709197998
            ],
            [
                "\u2581below",
                -9.095736503601074
            ],
            [
                "\u2581crisis",
                -9.087020874023438
            ],
            [
                "\u91cd",
                -8.813419342041016
            ],
            [
                "\u8aaa",
                -8.695414543151855
            ],
            [
                "\u2581articles",
                -9.126843452453613
            ],
            [
                "\u2581outcome",
                -9.084980010986328
            ],
            [
                "\u79ef\u6781",
                -8.739507675170898
            ],
            [
                "\u5458\u989d",
                -8.749242782592773
            ],
            [
                "\u2581\u4ece",
                -9.040189743041992
            ],
            [
                "\u2581People",
                -9.006453514099121
            ],
            [
                "\u2581final",
                -9.098050117492676
            ],
            [
                "\u2581Code",
                -9.083257675170898
            ],
            [
                "\u6570",
                -8.78833293914795
            ],
            [
                "\u258118.",
                -9.251971244812012
            ],
            [
                "\u4e25\u91cd",
                -8.725075721740723
            ],
            [
                "\u2581freedom",
                -9.081220626831055
            ],
            [
                "\u2581presented",
                -9.099146842956543
            ],
            [
                "\u8fdb\u5165",
                -8.769712448120117
            ],
            [
                "\u2581multilateral",
                -9.110469818115234
            ],
            [
                "\u2581Al",
                -9.256534576416016
            ],
            [
                "\u8fd9\u662f",
                -8.746306419372559
            ],
            [
                "\u2581connection",
                -9.092596054077148
            ],
            [
                "\u2581cannot",
                -9.072077751159668
            ],
            [
                "\u2581remains",
                -9.113906860351562
            ],
            [
                "\u5e94\u5bf9",
                -8.812840461730957
            ],
            [
                "\u8fbe\u5230",
                -8.794074058532715
            ],
            [
                "\u2581integrated",
                -9.107165336608887
            ],
            [
                "\u2581media",
                -9.078851699829102
            ],
            [
                "\u2581\u901a\u8fc7",
                -9.023571968078613
            ],
            [
                "\u2581refugees",
                -9.120075225830078
            ],
            [
                "\u6210\u679c",
                -8.770163536071777
            ],
            [
                "\u5b66\u6821",
                -8.745837211608887
            ],
            [
                "\u5f53\u5730",
                -8.774715423583984
            ],
            [
                "\u2581UNCTAD",
                -9.116273880004883
            ],
            [
                "\u2581Some",
                -9.078703880310059
            ],
            [
                "\u2581Sudan",
                -9.06527042388916
            ],
            [
                "\u2581value",
                -9.07974910736084
            ],
            [
                "\u610f\u89c1",
                -8.720085144042969
            ],
            [
                "\u2581claims",
                -9.120767593383789
            ],
            [
                "\u2581overall",
                -9.115710258483887
            ],
            [
                "\u51fa\u73b0",
                -8.769991874694824
            ],
            [
                "the",
                -9.114114761352539
            ],
            [
                "\u65e8\u5728",
                -8.75912094116211
            ],
            [
                "\u2581experience",
                -9.093591690063477
            ],
            [
                "\u516c\u6c11",
                -8.759224891662598
            ],
            [
                "\u7684\u4e3b\u8981",
                -8.873499870300293
            ],
            [
                "\u2581informal",
                -9.116670608520508
            ],
            [
                "\u25812011",
                -9.412190437316895
            ],
            [
                "\u8fd8\u662f",
                -8.764780044555664
            ],
            [
                "\u2581communications",
                -9.118389129638672
            ],
            [
                "\u4e2d\u56fd",
                -8.716873168945312
            ],
            [
                "\u5371\u673a",
                -8.782212257385254
            ],
            [
                "\u57ce\u5e02",
                -8.778620719909668
            ],
            [
                "\u2581Annex",
                -8.962198257446289
            ],
            [
                "\u2581identified",
                -9.122577667236328
            ],
            [
                "\u2581provisional",
                -9.117691993713379
            ],
            [
                "\u2581\u4e3a\u4e86",
                -8.81318473815918
            ],
            [
                "\u2581Please",
                -8.976001739501953
            ],
            [
                "\u529b",
                -8.841717720031738
            ],
            [
                "\u2581Are",
                -8.940027236938477
            ],
            [
                "\u2581conducted",
                -9.119024276733398
            ],
            [
                "\u4e0d\u4f1a",
                -8.767783164978027
            ],
            [
                "\u884c\u52a8\u8ba1\u5212",
                -8.781722068786621
            ],
            [
                "\u534f\u5546",
                -8.795039176940918
            ],
            [
                "\u2581exercise",
                -9.113730430603027
            ],
            [
                "\u9884\u9632",
                -8.767684936523438
            ],
            [
                "\u2581reference",
                -9.122713088989258
            ],
            [
                "\u8bae\u5b9a\u4e66",
                -8.826486587524414
            ],
            [
                "\u7eb3",
                -8.94106674194336
            ],
            [
                "\u7ed3\u675f",
                -8.80649471282959
            ],
            [
                "\u8bc4\u4ef7",
                -8.737719535827637
            ],
            [
                "\u4e24",
                -8.748047828674316
            ],
            [
                "45",
                -9.100727081298828
            ],
            [
                "\u5f53",
                -8.808026313781738
            ],
            [
                "\u5982\u4e0b",
                -8.766910552978516
            ],
            [
                "\u660e\u786e",
                -8.783449172973633
            ],
            [
                "related",
                -9.123160362243652
            ],
            [
                "\u2581purposes",
                -9.154377937316895
            ],
            [
                "\u662f\u4e00\u4e2a",
                -8.843792915344238
            ],
            [
                "\u2581sessions",
                -9.19647216796875
            ],
            [
                "\u519b\u4e8b",
                -8.785557746887207
            ],
            [
                "\u827e\u6ecb\u75c5\u6bd2",
                -8.7837495803833
            ],
            [
                "\u201d.",
                -9.246301651000977
            ],
            [
                "\u5c3d\u7ba1",
                -8.754107475280762
            ],
            [
                "\u6703",
                -8.763827323913574
            ],
            [
                "\u2581real",
                -9.058018684387207
            ],
            [
                "\u2581Just",
                -8.938891410827637
            ],
            [
                "\u2581Unit",
                -9.118181228637695
            ],
            [
                "\u5de5\u5177",
                -8.789228439331055
            ],
            [
                "\u4e00\u8d77",
                -8.778350830078125
            ],
            [
                "\u2581court",
                -9.119962692260742
            ],
            [
                "\u2581items",
                -9.1596097946167
            ],
            [
                "\u624b\u6bb5",
                -8.802084922790527
            ],
            [
                "\u800c\u8a00",
                -8.829237937927246
            ],
            [
                "\u4ea7\u751f",
                -8.771679878234863
            ],
            [
                "\u4ecb\u7ecd",
                -8.78933048248291
            ],
            [
                "\u2581preparation",
                -9.139360427856445
            ],
            [
                "\u6311\u6218",
                -8.778763771057129
            ],
            [
                "\u2581participate",
                -9.129916191101074
            ],
            [
                "\u7684\u6cd5\u5f8b",
                -8.902371406555176
            ],
            [
                "\u2581infrastructure",
                -9.138007164001465
            ],
            [
                "\u5168\u56fd",
                -8.773587226867676
            ],
            [
                "\u2581Regional",
                -9.141404151916504
            ],
            [
                "\u2581paragraphs",
                -9.183570861816406
            ],
            [
                "\u2581changes",
                -9.149961471557617
            ],
            [
                "\u6761\u6b3e",
                -8.776840209960938
            ],
            [
                "\u4ece\u4e8b",
                -8.828542709350586
            ],
            [
                "\u2581pay",
                -9.088425636291504
            ],
            [
                "\u652f\u4ed8",
                -8.815074920654297
            ],
            [
                "\u2581conference",
                -9.140966415405273
            ],
            [
                "\u90fd\u662f",
                -8.814191818237305
            ],
            [
                "\u4e00\u6b21",
                -8.792180061340332
            ],
            [
                "\u2581territory",
                -9.149887084960938
            ],
            [
                "60",
                -9.038031578063965
            ],
            [
                "\u8be5\u56fd",
                -8.757589340209961
            ],
            [
                "\u2581death",
                -9.09536075592041
            ],
            [
                "\u7684\u91cd\u8981\u6027",
                -8.823075294494629
            ],
            [
                "\u258119.",
                -9.30081558227539
            ],
            [
                "\u2581\u867d\u7136",
                -8.8486967086792
            ],
            [
                "2012",
                -8.790872573852539
            ],
            [
                "\u2581substantive",
                -9.161694526672363
            ],
            [
                "st",
                -9.390446662902832
            ],
            [
                "\u2581drug",
                -9.127495765686035
            ],
            [
                "\u2581institutional",
                -9.154332160949707
            ],
            [
                "\u2581enforcement",
                -9.151810646057129
            ],
            [
                "\u2581governance",
                -9.159062385559082
            ],
            [
                "\u56db",
                -8.782754898071289
            ],
            [
                "\u751f\u6d3b",
                -8.827728271484375
            ],
            [
                "\u2581Europe",
                -9.153019905090332
            ],
            [
                "\u2581\u5c3d\u7ba1",
                -8.857105255126953
            ],
            [
                "\u4e5f\u662f",
                -8.887248039245605
            ],
            [
                "\u2581compliance",
                -9.154402732849121
            ],
            [
                "\u624d",
                -8.776399612426758
            ],
            [
                "\u6b64\u7c7b",
                -8.825434684753418
            ],
            [
                "\u2581officers",
                -9.155381202697754
            ],
            [
                "\u2581power",
                -9.119807243347168
            ],
            [
                "\u5360",
                -8.823446273803711
            ],
            [
                ".\"",
                -9.01447868347168
            ],
            [
                "\u505a\u6cd5",
                -8.749017715454102
            ],
            [
                "\u51c6\u5219",
                -8.800134658813477
            ],
            [
                "\u6027\u522b",
                -8.876225471496582
            ],
            [
                "\u2581few",
                -9.120187759399414
            ],
            [
                "\u2581N",
                -9.6083984375
            ],
            [
                "\u51c6\u5907",
                -8.845720291137695
            ],
            [
                "\u5c06\u5728",
                -8.906942367553711
            ],
            [
                "\u2581views",
                -9.195490837097168
            ],
            [
                "\u2581mind",
                -9.069696426391602
            ],
            [
                "\u73b0\u6709",
                -8.741108894348145
            ],
            [
                "\u2581primary",
                -9.174615859985352
            ],
            [
                "\u7684\u52aa\u529b",
                -8.923172950744629
            ],
            [
                "\u7684\u76ee\u6807",
                -8.897377014160156
            ],
            [
                "\u2581ongoing",
                -9.170534133911133
            ],
            [
                "\u8054\u76df",
                -8.938279151916504
            ],
            [
                "\u5f00\u53d1",
                -8.86826229095459
            ],
            [
                "\u6253\u51fb",
                -8.849079132080078
            ],
            [
                "\u2581Protection",
                -9.155854225158691
            ],
            [
                "\u2581achieved",
                -9.177806854248047
            ],
            [
                "\u5e74\u5ea6",
                -8.829163551330566
            ],
            [
                "\u603b\u7edf",
                -8.843095779418945
            ],
            [
                "\u5c31\u4e1a",
                -8.816052436828613
            ],
            [
                "\u2581Section",
                -9.151580810546875
            ],
            [
                "\u2581return",
                -9.134117126464844
            ],
            [
                "\u56fd\u5185",
                -8.818593978881836
            ],
            [
                "\u2581UNICEF",
                -9.184956550598145
            ],
            [
                "\u6b66\u5668",
                -8.85726261138916
            ],
            [
                "\u4ee5\u6765",
                -8.822711944580078
            ],
            [
                "\u2581okay",
                -8.995529174804688
            ],
            [
                "35",
                -9.143427848815918
            ],
            [
                "\u2581direct",
                -9.172037124633789
            ],
            [
                "\u2581\u5927\u4f1a",
                -8.98836898803711
            ],
            [
                "\u5141\u8bb8",
                -8.83824634552002
            ],
            [
                "\u52a0\u4ee5",
                -8.85634994506836
            ],
            [
                "\u2581Public",
                -9.181891441345215
            ],
            [
                "\u2581internal",
                -9.1715087890625
            ],
            [
                "\u8bc1\u660e",
                -8.838337898254395
            ],
            [
                "\u2581resource",
                -9.183130264282227
            ],
            [
                "\u2581safety",
                -9.176175117492676
            ],
            [
                "\u4e88\u4ee5",
                -8.855571746826172
            ],
            [
                "\u2581Institute",
                -9.178805351257324
            ],
            [
                "\u5217\u5165",
                -8.822010040283203
            ],
            [
                "\u2581state",
                -9.158689498901367
            ],
            [
                "\u2581enable",
                -9.170366287231445
            ],
            [
                "\u5bf9\u8bdd",
                -8.839171409606934
            ],
            [
                "\u2581Recalling",
                -9.196809768676758
            ],
            [
                "\u5747",
                -8.845877647399902
            ],
            [
                "\u7684\u884c\u4e3a",
                -8.940706253051758
            ],
            [
                "\u4ecd",
                -8.843326568603516
            ],
            [
                "\u2581Japan",
                -9.112177848815918
            ],
            [
                "\u2581proceedings",
                -9.19580078125
            ],
            [
                "\u2581judicial",
                -9.188676834106445
            ],
            [
                "\u6539\u53d8",
                -8.847491264343262
            ],
            [
                "\u6838",
                -9.032485008239746
            ],
            [
                "\u2581detention",
                -9.179933547973633
            ],
            [
                "\u2581indicated",
                -9.1942777633667
            ],
            [
                "\u2581Health",
                -9.171808242797852
            ],
            [
                "\u2581effectively",
                -9.203606605529785
            ],
            [
                "\u5c0a\u91cd",
                -8.823446273803711
            ],
            [
                "year",
                -9.181168556213379
            ],
            [
                "\u258120.",
                -9.324047088623047
            ],
            [
                "\u957f",
                -8.849969863891602
            ],
            [
                "\u683c",
                -8.91945743560791
            ],
            [
                "\u2581integration",
                -9.186776161193848
            ],
            [
                "\u2581former",
                -9.145179748535156
            ],
            [
                "\u2581medical",
                -9.204911231994629
            ],
            [
                "\u2581low",
                -9.1940336227417
            ],
            [
                "\u2581See",
                -9.125070571899414
            ],
            [
                "\u2581O",
                -9.520806312561035
            ],
            [
                "\u2581combat",
                -9.194936752319336
            ],
            [
                "\u2581less",
                -9.17155647277832
            ],
            [
                "\u2581expert",
                -9.184464454650879
            ],
            [
                "\u2581keep",
                -9.066498756408691
            ],
            [
                "\u2581positive",
                -9.203536987304688
            ],
            [
                "\u91cf",
                -8.9168119430542
            ],
            [
                "\u25812012",
                -9.479265213012695
            ],
            [
                "\u7ba1\u5236",
                -8.952228546142578
            ],
            [
                "org",
                -9.609916687011719
            ],
            [
                "\u8bb0\u5f55",
                -8.856795310974121
            ],
            [
                "\u6587",
                -8.986678123474121
            ],
            [
                "\u7ef4\u6301",
                -8.851974487304688
            ],
            [
                "\u91c7\u53d6\u884c\u52a8",
                -8.869545936584473
            ],
            [
                "\u2581regions",
                -9.24399185180664
            ],
            [
                "\u9644\u4ef6",
                -8.800541877746582
            ],
            [
                "\u2581Agency",
                -9.210541725158691
            ],
            [
                "\u2581situations",
                -9.251996040344238
            ],
            [
                "\u2581Not",
                -9.044346809387207
            ],
            [
                "\u7684\u4f5c\u7528",
                -8.908455848693848
            ],
            [
                "\u6b63\u5f0f",
                -8.847737312316895
            ],
            [
                "\u2581reduce",
                -9.222115516662598
            ],
            [
                "\u4e8b\u4ef6",
                -8.844069480895996
            ],
            [
                "\u62df\u8ba2",
                -8.874519348144531
            ],
            [
                "\u2581objective",
                -9.208694458007812
            ],
            [
                "\u2581lead",
                -9.19282054901123
            ],
            [
                "\u4e4b\u4e00",
                -8.875213623046875
            ],
            [
                "\u4ebf\u7f8e\u5143",
                -8.8742094039917
            ],
            [
                "\u65e5\u672c",
                -8.834566116333008
            ],
            [
                "\u5927\u5b66",
                -8.863151550292969
            ],
            [
                "\u2581things",
                -9.095449447631836
            ],
            [
                "\u804c\u80fd",
                -8.851268768310547
            ],
            [
                "\u2581Political",
                -9.192533493041992
            ],
            [
                "\u53f8",
                -8.970049858093262
            ],
            [
                "\u8bae\u4f1a",
                -8.890036582946777
            ],
            [
                "\u2581{\\",
                -8.864213943481445
            ],
            [
                "\u6b21\u4f1a\u8bae",
                -8.912373542785645
            ],
            [
                "\u2581share",
                -9.185684204101562
            ],
            [
                "\u2581Afghanistan",
                -9.166695594787598
            ],
            [
                "\u2581met",
                -9.238506317138672
            ],
            [
                "\u258150",
                -9.32040786743164
            ],
            [
                "\u56e0\u7d20",
                -8.882312774658203
            ],
            [
                "\u5185\u90e8",
                -8.880428314208984
            ],
            [
                "\u2581kind",
                -9.124479293823242
            ],
            [
                "\u4e3a\u4e86",
                -8.90126895904541
            ],
            [
                "\u95f4",
                -8.948920249938965
            ],
            [
                "\u6cd5\u56fd",
                -8.830510139465332
            ],
            [
                "\u8fd9\u6837",
                -8.786431312561035
            ],
            [
                "\u2581Since",
                -9.218832015991211
            ],
            [
                "\u258121.",
                -9.364011764526367
            ],
            [
                "\u81ea\u5df1\u7684",
                -8.980295181274414
            ],
            [
                "\u884c\u653f",
                -8.854279518127441
            ],
            [
                "\u2581sorry",
                -9.007856369018555
[...]
